#ifndef MODEL_H
#define MODEL_H

#include <stddef.h>

const unsigned char model_data[] = {
    0x1c, 0x00, 0x00, 0x00, 0x54, 0x46, 0x4c, 0x33, 0x14, 0x00, 0x20, 0x00,
    0x1c, 0x00, 0x18, 0x00, 0x14, 0x00, 0x10, 0x00, 0x0c, 0x00, 0x00, 0x00,
    0x08, 0x00, 0x04, 0x00, 0x14, 0x00, 0x00, 0x00, 0x1c, 0x00, 0x00, 0x00,
    0x88, 0x00, 0x00, 0x00, 0xe0, 0x00, 0x00, 0x00, 0xc4, 0x2a, 0x00, 0x00,
    0xd4, 0x2a, 0x00, 0x00, 0x84, 0x30, 0x00, 0x00, 0x03, 0x00, 0x00, 0x00,
    0x01, 0x00, 0x00, 0x00, 0x04, 0x00, 0x00, 0x00, 0xee, 0xd4, 0xff, 0xff,
    0x0c, 0x00, 0x00, 0x00, 0x1c, 0x00, 0x00, 0x00, 0x3c, 0x00, 0x00, 0x00,
    0x0f, 0x00, 0x00, 0x00, 0x73, 0x65, 0x72, 0x76, 0x69, 0x6e, 0x67, 0x5f,
    0x64, 0x65, 0x66, 0x61, 0x75, 0x6c, 0x74, 0x00, 0x01, 0x00, 0x00, 0x00,
    0x04, 0x00, 0x00, 0x00, 0x94, 0xff, 0xff, 0xff, 0x0a, 0x00, 0x00, 0x00,
    0x04, 0x00, 0x00, 0x00, 0x08, 0x00, 0x00, 0x00, 0x6f, 0x75, 0x74, 0x70,
    0x75, 0x74, 0x5f, 0x30, 0x00, 0x00, 0x00, 0x00, 0x01, 0x00, 0x00, 0x00,
    0x04, 0x00, 0x00, 0x00, 0xfe, 0xd5, 0xff, 0xff, 0x04, 0x00, 0x00, 0x00,
    0x0b, 0x00, 0x00, 0x00, 0x69, 0x6e, 0x70, 0x75, 0x74, 0x5f, 0x6c, 0x61,
    0x79, 0x65, 0x72, 0x00, 0x02, 0x00, 0x00, 0x00, 0x34, 0x00, 0x00, 0x00,
    0x04, 0x00, 0x00, 0x00, 0xdc, 0xff, 0xff, 0xff, 0x0d, 0x00, 0x00, 0x00,
    0x04, 0x00, 0x00, 0x00, 0x13, 0x00, 0x00, 0x00, 0x43, 0x4f, 0x4e, 0x56,
    0x45, 0x52, 0x53, 0x49, 0x4f, 0x4e, 0x5f, 0x4d, 0x45, 0x54, 0x41, 0x44,
    0x41, 0x54, 0x41, 0x00, 0x08, 0x00, 0x0c, 0x00, 0x08, 0x00, 0x04, 0x00,
    0x08, 0x00, 0x00, 0x00, 0x0c, 0x00, 0x00, 0x00, 0x04, 0x00, 0x00, 0x00,
    0x13, 0x00, 0x00, 0x00, 0x6d, 0x69, 0x6e, 0x5f, 0x72, 0x75, 0x6e, 0x74,
    0x69, 0x6d, 0x65, 0x5f, 0x76, 0x65, 0x72, 0x73, 0x69, 0x6f, 0x6e, 0x00,
    0x0e, 0x00, 0x00, 0x00, 0xe0, 0x29, 0x00, 0x00, 0xd8, 0x29, 0x00, 0x00,
    0x88, 0x29, 0x00, 0x00, 0x70, 0x21, 0x00, 0x00, 0x68, 0x21, 0x00, 0x00,
    0xd8, 0x20, 0x00, 0x00, 0xc4, 0x20, 0x00, 0x00, 0xb4, 0x00, 0x00, 0x00,
    0xac, 0x00, 0x00, 0x00, 0xa4, 0x00, 0x00, 0x00, 0x9c, 0x00, 0x00, 0x00,
    0x94, 0x00, 0x00, 0x00, 0x74, 0x00, 0x00, 0x00, 0x04, 0x00, 0x00, 0x00,
    0xae, 0xd6, 0xff, 0xff, 0x04, 0x00, 0x00, 0x00, 0x60, 0x00, 0x00, 0x00,
    0x10, 0x00, 0x00, 0x00, 0x00, 0x00, 0x00, 0x00, 0x08, 0x00, 0x0e, 0x00,
    0x08, 0x00, 0x04, 0x00, 0x08, 0x00, 0x00, 0x00, 0x10, 0x00, 0x00, 0x00,
    0x24, 0x00, 0x00, 0x00, 0x00, 0x00, 0x06, 0x00, 0x08, 0x00, 0x04, 0x00,
    0x06, 0x00, 0x00, 0x00, 0x04, 0x00, 0x00, 0x00, 0x00, 0x00, 0x00, 0x00,
    0x0c, 0x00, 0x18, 0x00, 0x14, 0x00, 0x10, 0x00, 0x0c, 0x00, 0x04, 0x00,
    0x0c, 0x00, 0x00, 0x00, 0xa2, 0x0b, 0xa6, 0xd1, 0x57, 0xda, 0x60, 0x35,
    0x02, 0x00, 0x00, 0x00, 0x02, 0x00, 0x00, 0x00, 0x04, 0x00, 0x00, 0x00,
    0x06, 0x00, 0x00, 0x00, 0x32, 0x2e, 0x31, 0x38, 0x2e, 0x30, 0x00, 0x00,
    0x1a, 0xd7, 0xff, 0xff, 0x04, 0x00, 0x00, 0x00, 0x10, 0x00, 0x00, 0x00,
    0x31, 0x2e, 0x31, 0x34, 0x2e, 0x30, 0x00, 0x00, 0x00, 0x00, 0x00, 0x00,
    0x00, 0x00, 0x00, 0x00, 0x4c, 0xd1, 0xff, 0xff, 0x50, 0xd1, 0xff, 0xff,
    0x54, 0xd1, 0xff, 0xff, 0x58, 0xd1, 0xff, 0xff, 0x46, 0xd7, 0xff, 0xff,
    0x04, 0x00, 0x00, 0x00, 0x00, 0x20, 0x00, 0x00, 0x00, 0x00, 0xc0, 0x7f,
    0x00, 0x00, 0xc0, 0x7f, 0x00, 0x00, 0xc0, 0x7f, 0x00, 0x00, 0xc0, 0x7f,
    0x00, 0x00, 0xc0, 0x7f, 0x00, 0x00, 0xc0, 0x7f, 0x00, 0x00, 0xc0, 0x7f,
    0x00, 0x00, 0xc0, 0x7f, 0x00, 0x00, 0xc0, 0x7f, 0x00, 0x00, 0xc0, 0x7f,
    0x00, 0x00, 0xc0, 0x7f, 0x00, 0x00, 0xc0, 0x7f, 0x00, 0x00, 0xc0, 0x7f,
    0x00, 0x00, 0xc0, 0x7f, 0x00, 0x00, 0xc0, 0x7f, 0x00, 0x00, 0xc0, 0x7f,
    0x00, 0x00, 0xc0, 0x7f, 0x00, 0x00, 0xc0, 0x7f, 0x00, 0x00, 0xc0, 0x7f,
    0x00, 0x00, 0xc0, 0x7f, 0x00, 0x00, 0xc0, 0x7f, 0x00, 0x00, 0xc0, 0x7f,
    0x00, 0x00, 0xc0, 0x7f, 0x00, 0x00, 0xc0, 0x7f, 0x00, 0x00, 0xc0, 0x7f,
    0x00, 0x00, 0xc0, 0x7f, 0x00, 0x00, 0xc0, 0x7f, 0x00, 0x00, 0xc0, 0x7f,
    0x00, 0x00, 0xc0, 0x7f, 0x00, 0x00, 0xc0, 0x7f, 0x00, 0x00, 0xc0, 0x7f,
    0x00, 0x00, 0xc0, 0x7f, 0x00, 0x00, 0xc0, 0x7f, 0x00, 0x00, 0xc0, 0x7f,
    0x00, 0x00, 0xc0, 0x7f, 0x00, 0x00, 0xc0, 0x7f, 0x00, 0x00, 0xc0, 0x7f,
    0x00, 0x00, 0xc0, 0x7f, 0x00, 0x00, 0xc0, 0x7f, 0x00, 0x00, 0xc0, 0x7f,
    0x00, 0x00, 0xc0, 0x7f, 0x00, 0x00, 0xc0, 0x7f, 0x00, 0x00, 0xc0, 0x7f,
    0x00, 0x00, 0xc0, 0x7f, 0x00, 0x00, 0xc0, 0x7f, 0x00, 0x00, 0xc0, 0x7f,
    0x00, 0x00, 0xc0, 0x7f, 0x00, 0x00, 0xc0, 0x7f, 0x00, 0x00, 0xc0, 0x7f,
    0x00, 0x00, 0xc0, 0x7f, 0x00, 0x00, 0xc0, 0x7f, 0x00, 0x00, 0xc0, 0x7f,
    0x00, 0x00, 0xc0, 0x7f, 0x00, 0x00, 0xc0, 0x7f, 0x00, 0x00, 0xc0, 0x7f,
    0x00, 0x00, 0xc0, 0x7f, 0x00, 0x00, 0xc0, 0x7f, 0x00, 0x00, 0xc0, 0x7f,
    0x00, 0x00, 0xc0, 0x7f, 0x00, 0x00, 0xc0, 0x7f, 0x00, 0x00, 0xc0, 0x7f,
    0x00, 0x00, 0xc0, 0x7f, 0x00, 0x00, 0xc0, 0x7f, 0x00, 0x00, 0xc0, 0x7f,
    0x00, 0x00, 0xc0, 0x7f, 0x00, 0x00, 0xc0, 0x7f, 0x00, 0x00, 0xc0, 0x7f,
    0x00, 0x00, 0xc0, 0x7f, 0x00, 0x00, 0xc0, 0x7f, 0x00, 0x00, 0xc0, 0x7f,
    0x00, 0x00, 0xc0, 0x7f, 0x00, 0x00, 0xc0, 0x7f, 0x00, 0x00, 0xc0, 0x7f,
    0x00, 0x00, 0xc0, 0x7f, 0x00, 0x00, 0xc0, 0x7f, 0x00, 0x00, 0xc0, 0x7f,
    0x00, 0x00, 0xc0, 0x7f, 0x00, 0x00, 0xc0, 0x7f, 0x00, 0x00, 0xc0, 0x7f,
    0x00, 0x00, 0xc0, 0x7f, 0x00, 0x00, 0xc0, 0x7f, 0x00, 0x00, 0xc0, 0x7f,
    0x00, 0x00, 0xc0, 0x7f, 0x00, 0x00, 0xc0, 0x7f, 0x00, 0x00, 0xc0, 0x7f,
    0x00, 0x00, 0xc0, 0x7f, 0x00, 0x00, 0xc0, 0x7f, 0x00, 0x00, 0xc0, 0x7f,
    0x00, 0x00, 0xc0, 0x7f, 0x00, 0x00, 0xc0, 0x7f, 0x00, 0x00, 0xc0, 0x7f,
    0x00, 0x00, 0xc0, 0x7f, 0x00, 0x00, 0xc0, 0x7f, 0x00, 0x00, 0xc0, 0x7f,
    0x00, 0x00, 0xc0, 0x7f, 0x00, 0x00, 0xc0, 0x7f, 0x00, 0x00, 0xc0, 0x7f,
    0x00, 0x00, 0xc0, 0x7f, 0x00, 0x00, 0xc0, 0x7f, 0x00, 0x00, 0xc0, 0x7f,
    0x00, 0x00, 0xc0, 0x7f, 0x00, 0x00, 0xc0, 0x7f, 0x00, 0x00, 0xc0, 0x7f,
    0x00, 0x00, 0xc0, 0x7f, 0x00, 0x00, 0xc0, 0x7f, 0x00, 0x00, 0xc0, 0x7f,
    0x00, 0x00, 0xc0, 0x7f, 0x00, 0x00, 0xc0, 0x7f, 0x00, 0x00, 0xc0, 0x7f,
    0x00, 0x00, 0xc0, 0x7f, 0x00, 0x00, 0xc0, 0x7f, 0x00, 0x00, 0xc0, 0x7f,
    0x00, 0x00, 0xc0, 0x7f, 0x00, 0x00, 0xc0, 0x7f, 0x00, 0x00, 0xc0, 0x7f,
    0x00, 0x00, 0xc0, 0x7f, 0x00, 0x00, 0xc0, 0x7f, 0x00, 0x00, 0xc0, 0x7f,
    0x00, 0x00, 0xc0, 0x7f, 0x00, 0x00, 0xc0, 0x7f, 0x00, 0x00, 0xc0, 0x7f,
    0x00, 0x00, 0xc0, 0x7f, 0x00, 0x00, 0xc0, 0x7f, 0x00, 0x00, 0xc0, 0x7f,
    0x00, 0x00, 0xc0, 0x7f, 0x00, 0x00, 0xc0, 0x7f, 0x00, 0x00, 0xc0, 0x7f,
    0x00, 0x00, 0xc0, 0x7f, 0x00, 0x00, 0xc0, 0x7f, 0x00, 0x00, 0xc0, 0x7f,
    0x00, 0x00, 0xc0, 0x7f, 0x00, 0x00, 0xc0, 0x7f, 0x00, 0x00, 0xc0, 0x7f,
    0x00, 0x00, 0xc0, 0x7f, 0x00, 0x00, 0xc0, 0x7f, 0x00, 0x00, 0xc0, 0x7f,
    0x00, 0x00, 0xc0, 0x7f, 0x00, 0x00, 0xc0, 0x7f, 0x00, 0x00, 0xc0, 0x7f,
    0x00, 0x00, 0xc0, 0x7f, 0x00, 0x00, 0xc0, 0x7f, 0x00, 0x00, 0xc0, 0x7f,
    0x00, 0x00, 0xc0, 0x7f, 0x00, 0x00, 0xc0, 0x7f, 0x00, 0x00, 0xc0, 0x7f,
    0x00, 0x00, 0xc0, 0x7f, 0x00, 0x00, 0xc0, 0x7f, 0x00, 0x00, 0xc0, 0x7f,
    0x00, 0x00, 0xc0, 0x7f, 0x00, 0x00, 0xc0, 0x7f, 0x00, 0x00, 0xc0, 0x7f,
    0x00, 0x00, 0xc0, 0x7f, 0x00, 0x00, 0xc0, 0x7f, 0x00, 0x00, 0xc0, 0x7f,
    0x00, 0x00, 0xc0, 0x7f, 0x00, 0x00, 0xc0, 0x7f, 0x00, 0x00, 0xc0, 0x7f,
    0x00, 0x00, 0xc0, 0x7f, 0x00, 0x00, 0xc0, 0x7f, 0x00, 0x00, 0xc0, 0x7f,
    0x00, 0x00, 0xc0, 0x7f, 0x00, 0x00, 0xc0, 0x7f, 0x00, 0x00, 0xc0, 0x7f,
    0x00, 0x00, 0xc0, 0x7f, 0x00, 0x00, 0xc0, 0x7f, 0x00, 0x00, 0xc0, 0x7f,
    0x00, 0x00, 0xc0, 0x7f, 0x00, 0x00, 0xc0, 0x7f, 0x00, 0x00, 0xc0, 0x7f,
    0x00, 0x00, 0xc0, 0x7f, 0x00, 0x00, 0xc0, 0x7f, 0x00, 0x00, 0xc0, 0x7f,
    0x00, 0x00, 0xc0, 0x7f, 0x00, 0x00, 0xc0, 0x7f, 0x00, 0x00, 0xc0, 0x7f,
    0x00, 0x00, 0xc0, 0x7f, 0x00, 0x00, 0xc0, 0x7f, 0x00, 0x00, 0xc0, 0x7f,
    0x00, 0x00, 0xc0, 0x7f, 0x00, 0x00, 0xc0, 0x7f, 0x00, 0x00, 0xc0, 0x7f,
    0x00, 0x00, 0xc0, 0x7f, 0x00, 0x00, 0xc0, 0x7f, 0x00, 0x00, 0xc0, 0x7f,
    0x00, 0x00, 0xc0, 0x7f, 0x00, 0x00, 0xc0, 0x7f, 0x00, 0x00, 0xc0, 0x7f,
    0x00, 0x00, 0xc0, 0x7f, 0x00, 0x00, 0xc0, 0x7f, 0x00, 0x00, 0xc0, 0x7f,
    0x00, 0x00, 0xc0, 0x7f, 0x00, 0x00, 0xc0, 0x7f, 0x00, 0x00, 0xc0, 0x7f,
    0x00, 0x00, 0xc0, 0x7f, 0x00, 0x00, 0xc0, 0x7f, 0x00, 0x00, 0xc0, 0x7f,
    0x00, 0x00, 0xc0, 0x7f, 0x00, 0x00, 0xc0, 0x7f, 0x00, 0x00, 0xc0, 0x7f,
    0x00, 0x00, 0xc0, 0x7f, 0x00, 0x00, 0xc0, 0x7f, 0x00, 0x00, 0xc0, 0x7f,
    0x00, 0x00, 0xc0, 0x7f, 0x00, 0x00, 0xc0, 0x7f, 0x00, 0x00, 0xc0, 0x7f,
    0x00, 0x00, 0xc0, 0x7f, 0x00, 0x00, 0xc0, 0x7f, 0x00, 0x00, 0xc0, 0x7f,
    0x00, 0x00, 0xc0, 0x7f, 0x00, 0x00, 0xc0, 0x7f, 0x00, 0x00, 0xc0, 0x7f,
    0x00, 0x00, 0xc0, 0x7f, 0x00, 0x00, 0xc0, 0x7f, 0x00, 0x00, 0xc0, 0x7f,
    0x00, 0x00, 0xc0, 0x7f, 0x00, 0x00, 0xc0, 0x7f, 0x00, 0x00, 0xc0, 0x7f,
    0x00, 0x00, 0xc0, 0x7f, 0x00, 0x00, 0xc0, 0x7f, 0x00, 0x00, 0xc0, 0x7f,
    0x00, 0x00, 0xc0, 0x7f, 0x00, 0x00, 0xc0, 0x7f, 0x00, 0x00, 0xc0, 0x7f,
    0x00, 0x00, 0xc0, 0x7f, 0x00, 0x00, 0xc0, 0x7f, 0x00, 0x00, 0xc0, 0x7f,
    0x00, 0x00, 0xc0, 0x7f, 0x00, 0x00, 0xc0, 0x7f, 0x00, 0x00, 0xc0, 0x7f,
    0x00, 0x00, 0xc0, 0x7f, 0x00, 0x00, 0xc0, 0x7f, 0x00, 0x00, 0xc0, 0x7f,
    0x00, 0x00, 0xc0, 0x7f, 0x00, 0x00, 0xc0, 0x7f, 0x00, 0x00, 0xc0, 0x7f,
    0x00, 0x00, 0xc0, 0x7f, 0x00, 0x00, 0xc0, 0x7f, 0x00, 0x00, 0xc0, 0x7f,
    0x00, 0x00, 0xc0, 0x7f, 0x00, 0x00, 0xc0, 0x7f, 0x00, 0x00, 0xc0, 0x7f,
    0x00, 0x00, 0xc0, 0x7f, 0x00, 0x00, 0xc0, 0x7f, 0x00, 0x00, 0xc0, 0x7f,
    0x00, 0x00, 0xc0, 0x7f, 0x00, 0x00, 0xc0, 0x7f, 0x00, 0x00, 0xc0, 0x7f,
    0x00, 0x00, 0xc0, 0x7f, 0x00, 0x00, 0xc0, 0x7f, 0x00, 0x00, 0xc0, 0x7f,
    0x00, 0x00, 0xc0, 0x7f, 0x00, 0x00, 0xc0, 0x7f, 0x00, 0x00, 0xc0, 0x7f,
    0x00, 0x00, 0xc0, 0x7f, 0x00, 0x00, 0xc0, 0x7f, 0x00, 0x00, 0xc0, 0x7f,
    0x00, 0x00, 0xc0, 0x7f, 0x00, 0x00, 0xc0, 0x7f, 0x00, 0x00, 0xc0, 0x7f,
    0x00, 0x00, 0xc0, 0x7f, 0x00, 0x00, 0xc0, 0x7f, 0x00, 0x00, 0xc0, 0x7f,
    0x00, 0x00, 0xc0, 0x7f, 0x00, 0x00, 0xc0, 0x7f, 0x00, 0x00, 0xc0, 0x7f,
    0x00, 0x00, 0xc0, 0x7f, 0x00, 0x00, 0xc0, 0x7f, 0x00, 0x00, 0xc0, 0x7f,
    0x00, 0x00, 0xc0, 0x7f, 0x00, 0x00, 0xc0, 0x7f, 0x00, 0x00, 0xc0, 0x7f,
    0x00, 0x00, 0xc0, 0x7f, 0x00, 0x00, 0xc0, 0x7f, 0x00, 0x00, 0xc0, 0x7f,
    0x00, 0x00, 0xc0, 0x7f, 0x00, 0x00, 0xc0, 0x7f, 0x00, 0x00, 0xc0, 0x7f,
    0x00, 0x00, 0xc0, 0x7f, 0x00, 0x00, 0xc0, 0x7f, 0x00, 0x00, 0xc0, 0x7f,
    0x00, 0x00, 0xc0, 0x7f, 0x00, 0x00, 0xc0, 0x7f, 0x00, 0x00, 0xc0, 0x7f,
    0x00, 0x00, 0xc0, 0x7f, 0x00, 0x00, 0xc0, 0x7f, 0x00, 0x00, 0xc0, 0x7f,
    0x00, 0x00, 0xc0, 0x7f, 0x00, 0x00, 0xc0, 0x7f, 0x00, 0x00, 0xc0, 0x7f,
    0x00, 0x00, 0xc0, 0x7f, 0x00, 0x00, 0xc0, 0x7f, 0x00, 0x00, 0xc0, 0x7f,
    0x00, 0x00, 0xc0, 0x7f, 0x00, 0x00, 0xc0, 0x7f, 0x00, 0x00, 0xc0, 0x7f,
    0x00, 0x00, 0xc0, 0x7f, 0x00, 0x00, 0xc0, 0x7f, 0x00, 0x00, 0xc0, 0x7f,
    0x00, 0x00, 0xc0, 0x7f, 0x00, 0x00, 0xc0, 0x7f, 0x00, 0x00, 0xc0, 0x7f,
    0x00, 0x00, 0xc0, 0x7f, 0x00, 0x00, 0xc0, 0x7f, 0x00, 0x00, 0xc0, 0x7f,
    0x00, 0x00, 0xc0, 0x7f, 0x00, 0x00, 0xc0, 0x7f, 0x00, 0x00, 0xc0, 0x7f,
    0x00, 0x00, 0xc0, 0x7f, 0x00, 0x00, 0xc0, 0x7f, 0x00, 0x00, 0xc0, 0x7f,
    0x00, 0x00, 0xc0, 0x7f, 0x00, 0x00, 0xc0, 0x7f, 0x00, 0x00, 0xc0, 0x7f,
    0x00, 0x00, 0xc0, 0x7f, 0x00, 0x00, 0xc0, 0x7f, 0x00, 0x00, 0xc0, 0x7f,
    0x00, 0x00, 0xc0, 0x7f, 0x00, 0x00, 0xc0, 0x7f, 0x00, 0x00, 0xc0, 0x7f,
    0x00, 0x00, 0xc0, 0x7f, 0x00, 0x00, 0xc0, 0x7f, 0x00, 0x00, 0xc0, 0x7f,
    0x00, 0x00, 0xc0, 0x7f, 0x00, 0x00, 0xc0, 0x7f, 0x00, 0x00, 0xc0, 0x7f,
    0x00, 0x00, 0xc0, 0x7f, 0x00, 0x00, 0xc0, 0x7f, 0x00, 0x00, 0xc0, 0x7f,
    0x00, 0x00, 0xc0, 0x7f, 0x00, 0x00, 0xc0, 0x7f, 0x00, 0x00, 0xc0, 0x7f,
    0x00, 0x00, 0xc0, 0x7f, 0x00, 0x00, 0xc0, 0x7f, 0x00, 0x00, 0xc0, 0x7f,
    0x00, 0x00, 0xc0, 0x7f, 0x00, 0x00, 0xc0, 0x7f, 0x00, 0x00, 0xc0, 0x7f,
    0x00, 0x00, 0xc0, 0x7f, 0x00, 0x00, 0xc0, 0x7f, 0x00, 0x00, 0xc0, 0x7f,
    0x00, 0x00, 0xc0, 0x7f, 0x00, 0x00, 0xc0, 0x7f, 0x00, 0x00, 0xc0, 0x7f,
    0x00, 0x00, 0xc0, 0x7f, 0x00, 0x00, 0xc0, 0x7f, 0x00, 0x00, 0xc0, 0x7f,
    0x00, 0x00, 0xc0, 0x7f, 0x00, 0x00, 0xc0, 0x7f, 0x00, 0x00, 0xc0, 0x7f,
    0x00, 0x00, 0xc0, 0x7f, 0x00, 0x00, 0xc0, 0x7f, 0x00, 0x00, 0xc0, 0x7f,
    0x00, 0x00, 0xc0, 0x7f, 0x00, 0x00, 0xc0, 0x7f, 0x00, 0x00, 0xc0, 0x7f,
    0x00, 0x00, 0xc0, 0x7f, 0x00, 0x00, 0xc0, 0x7f, 0x00, 0x00, 0xc0, 0x7f,
    0x00, 0x00, 0xc0, 0x7f, 0x00, 0x00, 0xc0, 0x7f, 0x00, 0x00, 0xc0, 0x7f,
    0x00, 0x00, 0xc0, 0x7f, 0x00, 0x00, 0xc0, 0x7f, 0x00, 0x00, 0xc0, 0x7f,
    0x00, 0x00, 0xc0, 0x7f, 0x00, 0x00, 0xc0, 0x7f, 0x00, 0x00, 0xc0, 0x7f,
    0x00, 0x00, 0xc0, 0x7f, 0x00, 0x00, 0xc0, 0x7f, 0x00, 0x00, 0xc0, 0x7f,
    0x00, 0x00, 0xc0, 0x7f, 0x00, 0x00, 0xc0, 0x7f, 0x00, 0x00, 0xc0, 0x7f,
    0x00, 0x00, 0xc0, 0x7f, 0x00, 0x00, 0xc0, 0x7f, 0x00, 0x00, 0xc0, 0x7f,
    0x00, 0x00, 0xc0, 0x7f, 0x00, 0x00, 0xc0, 0x7f, 0x00, 0x00, 0xc0, 0x7f,
    0x00, 0x00, 0xc0, 0x7f, 0x00, 0x00, 0xc0, 0x7f, 0x00, 0x00, 0xc0, 0x7f,
    0x00, 0x00, 0xc0, 0x7f, 0x00, 0x00, 0xc0, 0x7f, 0x00, 0x00, 0xc0, 0x7f,
    0x00, 0x00, 0xc0, 0x7f, 0x00, 0x00, 0xc0, 0x7f, 0x00, 0x00, 0xc0, 0x7f,
    0x00, 0x00, 0xc0, 0x7f, 0x00, 0x00, 0xc0, 0x7f, 0x00, 0x00, 0xc0, 0x7f,
    0x00, 0x00, 0xc0, 0x7f, 0x00, 0x00, 0xc0, 0x7f, 0x00, 0x00, 0xc0, 0x7f,
    0x00, 0x00, 0xc0, 0x7f, 0x00, 0x00, 0xc0, 0x7f, 0x00, 0x00, 0xc0, 0x7f,
    0x00, 0x00, 0xc0, 0x7f, 0x00, 0x00, 0xc0, 0x7f, 0x00, 0x00, 0xc0, 0x7f,
    0x00, 0x00, 0xc0, 0x7f, 0x00, 0x00, 0xc0, 0x7f, 0x00, 0x00, 0xc0, 0x7f,
    0x00, 0x00, 0xc0, 0x7f, 0x00, 0x00, 0xc0, 0x7f, 0x00, 0x00, 0xc0, 0x7f,
    0x00, 0x00, 0xc0, 0x7f, 0x00, 0x00, 0xc0, 0x7f, 0x00, 0x00, 0xc0, 0x7f,
    0x00, 0x00, 0xc0, 0x7f, 0x00, 0x00, 0xc0, 0x7f, 0x00, 0x00, 0xc0, 0x7f,
    0x00, 0x00, 0xc0, 0x7f, 0x00, 0x00, 0xc0, 0x7f, 0x00, 0x00, 0xc0, 0x7f,
    0x00, 0x00, 0xc0, 0x7f, 0x00, 0x00, 0xc0, 0x7f, 0x00, 0x00, 0xc0, 0x7f,
    0x00, 0x00, 0xc0, 0x7f, 0x00, 0x00, 0xc0, 0x7f, 0x00, 0x00, 0xc0, 0x7f,
    0x00, 0x00, 0xc0, 0x7f, 0x00, 0x00, 0xc0, 0x7f, 0x00, 0x00, 0xc0, 0x7f,
    0x00, 0x00, 0xc0, 0x7f, 0x00, 0x00, 0xc0, 0x7f, 0x00, 0x00, 0xc0, 0x7f,
    0x00, 0x00, 0xc0, 0x7f, 0x00, 0x00, 0xc0, 0x7f, 0x00, 0x00, 0xc0, 0x7f,
    0x00, 0x00, 0xc0, 0x7f, 0x00, 0x00, 0xc0, 0x7f, 0x00, 0x00, 0xc0, 0x7f,
    0x00, 0x00, 0xc0, 0x7f, 0x00, 0x00, 0xc0, 0x7f, 0x00, 0x00, 0xc0, 0x7f,
    0x00, 0x00, 0xc0, 0x7f, 0x00, 0x00, 0xc0, 0x7f, 0x00, 0x00, 0xc0, 0x7f,
    0x00, 0x00, 0xc0, 0x7f, 0x00, 0x00, 0xc0, 0x7f, 0x00, 0x00, 0xc0, 0x7f,
    0x00, 0x00, 0xc0, 0x7f, 0x00, 0x00, 0xc0, 0x7f, 0x00, 0x00, 0xc0, 0x7f,
    0x00, 0x00, 0xc0, 0x7f, 0x00, 0x00, 0xc0, 0x7f, 0x00, 0x00, 0xc0, 0x7f,
    0x00, 0x00, 0xc0, 0x7f, 0x00, 0x00, 0xc0, 0x7f, 0x00, 0x00, 0xc0, 0x7f,
    0x00, 0x00, 0xc0, 0x7f, 0x00, 0x00, 0xc0, 0x7f, 0x00, 0x00, 0xc0, 0x7f,
    0x00, 0x00, 0xc0, 0x7f, 0x00, 0x00, 0xc0, 0x7f, 0x00, 0x00, 0xc0, 0x7f,
    0x00, 0x00, 0xc0, 0x7f, 0x00, 0x00, 0xc0, 0x7f, 0x00, 0x00, 0xc0, 0x7f,
    0x00, 0x00, 0xc0, 0x7f, 0x00, 0x00, 0xc0, 0x7f, 0x00, 0x00, 0xc0, 0x7f,
    0x00, 0x00, 0xc0, 0x7f, 0x00, 0x00, 0xc0, 0x7f, 0x00, 0x00, 0xc0, 0x7f,
    0x00, 0x00, 0xc0, 0x7f, 0x00, 0x00, 0xc0, 0x7f, 0x00, 0x00, 0xc0, 0x7f,
    0x00, 0x00, 0xc0, 0x7f, 0x00, 0x00, 0xc0, 0x7f, 0x00, 0x00, 0xc0, 0x7f,
    0x00, 0x00, 0xc0, 0x7f, 0x00, 0x00, 0xc0, 0x7f, 0x00, 0x00, 0xc0, 0x7f,
    0x00, 0x00, 0xc0, 0x7f, 0x00, 0x00, 0xc0, 0x7f, 0x00, 0x00, 0xc0, 0x7f,
    0x00, 0x00, 0xc0, 0x7f, 0x00, 0x00, 0xc0, 0x7f, 0x00, 0x00, 0xc0, 0x7f,
    0x00, 0x00, 0xc0, 0x7f, 0x00, 0x00, 0xc0, 0x7f, 0x00, 0x00, 0xc0, 0x7f,
    0x00, 0x00, 0xc0, 0x7f, 0x00, 0x00, 0xc0, 0x7f, 0x00, 0x00, 0xc0, 0x7f,
    0x00, 0x00, 0xc0, 0x7f, 0x00, 0x00, 0xc0, 0x7f, 0x00, 0x00, 0xc0, 0x7f,
    0x00, 0x00, 0xc0, 0x7f, 0x00, 0x00, 0xc0, 0x7f, 0x00, 0x00, 0xc0, 0x7f,
    0x00, 0x00, 0xc0, 0x7f, 0x00, 0x00, 0xc0, 0x7f, 0x00, 0x00, 0xc0, 0x7f,
    0x00, 0x00, 0xc0, 0x7f, 0x00, 0x00, 0xc0, 0x7f, 0x00, 0x00, 0xc0, 0x7f,
    0x00, 0x00, 0xc0, 0x7f, 0x00, 0x00, 0xc0, 0x7f, 0x00, 0x00, 0xc0, 0x7f,
    0x00, 0x00, 0xc0, 0x7f, 0x00, 0x00, 0xc0, 0x7f, 0x00, 0x00, 0xc0, 0x7f,
    0x00, 0x00, 0xc0, 0x7f, 0x00, 0x00, 0xc0, 0x7f, 0x00, 0x00, 0xc0, 0x7f,
    0x00, 0x00, 0xc0, 0x7f, 0x00, 0x00, 0xc0, 0x7f, 0x00, 0x00, 0xc0, 0x7f,
    0x00, 0x00, 0xc0, 0x7f, 0x00, 0x00, 0xc0, 0x7f, 0x00, 0x00, 0xc0, 0x7f,
    0x00, 0x00, 0xc0, 0x7f, 0x00, 0x00, 0xc0, 0x7f, 0x00, 0x00, 0xc0, 0x7f,
    0x00, 0x00, 0xc0, 0x7f, 0x00, 0x00, 0xc0, 0x7f, 0x00, 0x00, 0xc0, 0x7f,
    0x00, 0x00, 0xc0, 0x7f, 0x00, 0x00, 0xc0, 0x7f, 0x00, 0x00, 0xc0, 0x7f,
    0x00, 0x00, 0xc0, 0x7f, 0x00, 0x00, 0xc0, 0x7f, 0x00, 0x00, 0xc0, 0x7f,
    0x00, 0x00, 0xc0, 0x7f, 0x00, 0x00, 0xc0, 0x7f, 0x00, 0x00, 0xc0, 0x7f,
    0x00, 0x00, 0xc0, 0x7f, 0x00, 0x00, 0xc0, 0x7f, 0x00, 0x00, 0xc0, 0x7f,
    0x00, 0x00, 0xc0, 0x7f, 0x00, 0x00, 0xc0, 0x7f, 0x00, 0x00, 0xc0, 0x7f,
    0x00, 0x00, 0xc0, 0x7f, 0x00, 0x00, 0xc0, 0x7f, 0x00, 0x00, 0xc0, 0x7f,
    0x00, 0x00, 0xc0, 0x7f, 0x00, 0x00, 0xc0, 0x7f, 0x00, 0x00, 0xc0, 0x7f,
    0x00, 0x00, 0xc0, 0x7f, 0x00, 0x00, 0xc0, 0x7f, 0x00, 0x00, 0xc0, 0x7f,
    0x00, 0x00, 0xc0, 0x7f, 0x00, 0x00, 0xc0, 0x7f, 0x00, 0x00, 0xc0, 0x7f,
    0x00, 0x00, 0xc0, 0x7f, 0x00, 0x00, 0xc0, 0x7f, 0x00, 0x00, 0xc0, 0x7f,
    0x00, 0x00, 0xc0, 0x7f, 0x00, 0x00, 0xc0, 0x7f, 0x00, 0x00, 0xc0, 0x7f,
    0x00, 0x00, 0xc0, 0x7f, 0x00, 0x00, 0xc0, 0x7f, 0x00, 0x00, 0xc0, 0x7f,
    0x00, 0x00, 0xc0, 0x7f, 0x00, 0x00, 0xc0, 0x7f, 0x00, 0x00, 0xc0, 0x7f,
    0x00, 0x00, 0xc0, 0x7f, 0x00, 0x00, 0xc0, 0x7f, 0x00, 0x00, 0xc0, 0x7f,
    0x00, 0x00, 0xc0, 0x7f, 0x00, 0x00, 0xc0, 0x7f, 0x00, 0x00, 0xc0, 0x7f,
    0x00, 0x00, 0xc0, 0x7f, 0x00, 0x00, 0xc0, 0x7f, 0x00, 0x00, 0xc0, 0x7f,
    0x00, 0x00, 0xc0, 0x7f, 0x00, 0x00, 0xc0, 0x7f, 0x00, 0x00, 0xc0, 0x7f,
    0x00, 0x00, 0xc0, 0x7f, 0x00, 0x00, 0xc0, 0x7f, 0x00, 0x00, 0xc0, 0x7f,
    0x00, 0x00, 0xc0, 0x7f, 0x00, 0x00, 0xc0, 0x7f, 0x00, 0x00, 0xc0, 0x7f,
    0x00, 0x00, 0xc0, 0x7f, 0x00, 0x00, 0xc0, 0x7f, 0x00, 0x00, 0xc0, 0x7f,
    0x00, 0x00, 0xc0, 0x7f, 0x00, 0x00, 0xc0, 0x7f, 0x00, 0x00, 0xc0, 0x7f,
    0x00, 0x00, 0xc0, 0x7f, 0x00, 0x00, 0xc0, 0x7f, 0x00, 0x00, 0xc0, 0x7f,
    0x00, 0x00, 0xc0, 0x7f, 0x00, 0x00, 0xc0, 0x7f, 0x00, 0x00, 0xc0, 0x7f,
    0x00, 0x00, 0xc0, 0x7f, 0x00, 0x00, 0xc0, 0x7f, 0x00, 0x00, 0xc0, 0x7f,
    0x00, 0x00, 0xc0, 0x7f, 0x00, 0x00, 0xc0, 0x7f, 0x00, 0x00, 0xc0, 0x7f,
    0x00, 0x00, 0xc0, 0x7f, 0x00, 0x00, 0xc0, 0x7f, 0x00, 0x00, 0xc0, 0x7f,
    0x00, 0x00, 0xc0, 0x7f, 0x00, 0x00, 0xc0, 0x7f, 0x00, 0x00, 0xc0, 0x7f,
    0x00, 0x00, 0xc0, 0x7f, 0x00, 0x00, 0xc0, 0x7f, 0x00, 0x00, 0xc0, 0x7f,
    0x00, 0x00, 0xc0, 0x7f, 0x00, 0x00, 0xc0, 0x7f, 0x00, 0x00, 0xc0, 0x7f,
    0x00, 0x00, 0xc0, 0x7f, 0x00, 0x00, 0xc0, 0x7f, 0x00, 0x00, 0xc0, 0x7f,
    0x00, 0x00, 0xc0, 0x7f, 0x00, 0x00, 0xc0, 0x7f, 0x00, 0x00, 0xc0, 0x7f,
    0x00, 0x00, 0xc0, 0x7f, 0x00, 0x00, 0xc0, 0x7f, 0x00, 0x00, 0xc0, 0x7f,
    0x00, 0x00, 0xc0, 0x7f, 0x00, 0x00, 0xc0, 0x7f, 0x00, 0x00, 0xc0, 0x7f,
    0x00, 0x00, 0xc0, 0x7f, 0x00, 0x00, 0xc0, 0x7f, 0x00, 0x00, 0xc0, 0x7f,
    0x00, 0x00, 0xc0, 0x7f, 0x00, 0x00, 0xc0, 0x7f, 0x00, 0x00, 0xc0, 0x7f,
    0x00, 0x00, 0xc0, 0x7f, 0x00, 0x00, 0xc0, 0x7f, 0x00, 0x00, 0xc0, 0x7f,
    0x00, 0x00, 0xc0, 0x7f, 0x00, 0x00, 0xc0, 0x7f, 0x00, 0x00, 0xc0, 0x7f,
    0x00, 0x00, 0xc0, 0x7f, 0x00, 0x00, 0xc0, 0x7f, 0x00, 0x00, 0xc0, 0x7f,
    0x00, 0x00, 0xc0, 0x7f, 0x00, 0x00, 0xc0, 0x7f, 0x00, 0x00, 0xc0, 0x7f,
    0x00, 0x00, 0xc0, 0x7f, 0x00, 0x00, 0xc0, 0x7f, 0x00, 0x00, 0xc0, 0x7f,
    0x00, 0x00, 0xc0, 0x7f, 0x00, 0x00, 0xc0, 0x7f, 0x00, 0x00, 0xc0, 0x7f,
    0x00, 0x00, 0xc0, 0x7f, 0x00, 0x00, 0xc0, 0x7f, 0x00, 0x00, 0xc0, 0x7f,
    0x00, 0x00, 0xc0, 0x7f, 0x00, 0x00, 0xc0, 0x7f, 0x00, 0x00, 0xc0, 0x7f,
    0x00, 0x00, 0xc0, 0x7f, 0x00, 0x00, 0xc0, 0x7f, 0x00, 0x00, 0xc0, 0x7f,
    0x00, 0x00, 0xc0, 0x7f, 0x00, 0x00, 0xc0, 0x7f, 0x00, 0x00, 0xc0, 0x7f,
    0x00, 0x00, 0xc0, 0x7f, 0x00, 0x00, 0xc0, 0x7f, 0x00, 0x00, 0xc0, 0x7f,
    0x00, 0x00, 0xc0, 0x7f, 0x00, 0x00, 0xc0, 0x7f, 0x00, 0x00, 0xc0, 0x7f,
    0x00, 0x00, 0xc0, 0x7f, 0x00, 0x00, 0xc0, 0x7f, 0x00, 0x00, 0xc0, 0x7f,
    0x00, 0x00, 0xc0, 0x7f, 0x00, 0x00, 0xc0, 0x7f, 0x00, 0x00, 0xc0, 0x7f,
    0x00, 0x00, 0xc0, 0x7f, 0x00, 0x00, 0xc0, 0x7f, 0x00, 0x00, 0xc0, 0x7f,
    0x00, 0x00, 0xc0, 0x7f, 0x00, 0x00, 0xc0, 0x7f, 0x00, 0x00, 0xc0, 0x7f,
    0x00, 0x00, 0xc0, 0x7f, 0x00, 0x00, 0xc0, 0x7f, 0x00, 0x00, 0xc0, 0x7f,
    0x00, 0x00, 0xc0, 0x7f, 0x00, 0x00, 0xc0, 0x7f, 0x00, 0x00, 0xc0, 0x7f,
    0x00, 0x00, 0xc0, 0x7f, 0x00, 0x00, 0xc0, 0x7f, 0x00, 0x00, 0xc0, 0x7f,
    0x00, 0x00, 0xc0, 0x7f, 0x00, 0x00, 0xc0, 0x7f, 0x00, 0x00, 0xc0, 0x7f,
    0x00, 0x00, 0xc0, 0x7f, 0x00, 0x00, 0xc0, 0x7f, 0x00, 0x00, 0xc0, 0x7f,
    0x00, 0x00, 0xc0, 0x7f, 0x00, 0x00, 0xc0, 0x7f, 0x00, 0x00, 0xc0, 0x7f,
    0x00, 0x00, 0xc0, 0x7f, 0x00, 0x00, 0xc0, 0x7f, 0x00, 0x00, 0xc0, 0x7f,
    0x00, 0x00, 0xc0, 0x7f, 0x00, 0x00, 0xc0, 0x7f, 0x00, 0x00, 0xc0, 0x7f,
    0x00, 0x00, 0xc0, 0x7f, 0x00, 0x00, 0xc0, 0x7f, 0x00, 0x00, 0xc0, 0x7f,
    0x00, 0x00, 0xc0, 0x7f, 0x00, 0x00, 0xc0, 0x7f, 0x00, 0x00, 0xc0, 0x7f,
    0x00, 0x00, 0xc0, 0x7f, 0x00, 0x00, 0xc0, 0x7f, 0x00, 0x00, 0xc0, 0x7f,
    0x00, 0x00, 0xc0, 0x7f, 0x00, 0x00, 0xc0, 0x7f, 0x00, 0x00, 0xc0, 0x7f,
    0x00, 0x00, 0xc0, 0x7f, 0x00, 0x00, 0xc0, 0x7f, 0x00, 0x00, 0xc0, 0x7f,
    0x00, 0x00, 0xc0, 0x7f, 0x00, 0x00, 0xc0, 0x7f, 0x00, 0x00, 0xc0, 0x7f,
    0x00, 0x00, 0xc0, 0x7f, 0x00, 0x00, 0xc0, 0x7f, 0x00, 0x00, 0xc0, 0x7f,
    0x00, 0x00, 0xc0, 0x7f, 0x00, 0x00, 0xc0, 0x7f, 0x00, 0x00, 0xc0, 0x7f,
    0x00, 0x00, 0xc0, 0x7f, 0x00, 0x00, 0xc0, 0x7f, 0x00, 0x00, 0xc0, 0x7f,
    0x00, 0x00, 0xc0, 0x7f, 0x00, 0x00, 0xc0, 0x7f, 0x00, 0x00, 0xc0, 0x7f,
    0x00, 0x00, 0xc0, 0x7f, 0x00, 0x00, 0xc0, 0x7f, 0x00, 0x00, 0xc0, 0x7f,
    0x00, 0x00, 0xc0, 0x7f, 0x00, 0x00, 0xc0, 0x7f, 0x00, 0x00, 0xc0, 0x7f,
    0x00, 0x00, 0xc0, 0x7f, 0x00, 0x00, 0xc0, 0x7f, 0x00, 0x00, 0xc0, 0x7f,
    0x00, 0x00, 0xc0, 0x7f, 0x00, 0x00, 0xc0, 0x7f, 0x00, 0x00, 0xc0, 0x7f,
    0x00, 0x00, 0xc0, 0x7f, 0x00, 0x00, 0xc0, 0x7f, 0x00, 0x00, 0xc0, 0x7f,
    0x00, 0x00, 0xc0, 0x7f, 0x00, 0x00, 0xc0, 0x7f, 0x00, 0x00, 0xc0, 0x7f,
    0x00, 0x00, 0xc0, 0x7f, 0x00, 0x00, 0xc0, 0x7f, 0x00, 0x00, 0xc0, 0x7f,
    0x00, 0x00, 0xc0, 0x7f, 0x00, 0x00, 0xc0, 0x7f, 0x00, 0x00, 0xc0, 0x7f,
    0x00, 0x00, 0xc0, 0x7f, 0x00, 0x00, 0xc0, 0x7f, 0x00, 0x00, 0xc0, 0x7f,
    0x00, 0x00, 0xc0, 0x7f, 0x00, 0x00, 0xc0, 0x7f, 0x00, 0x00, 0xc0, 0x7f,
    0x00, 0x00, 0xc0, 0x7f, 0x00, 0x00, 0xc0, 0x7f, 0x00, 0x00, 0xc0, 0x7f,
    0x00, 0x00, 0xc0, 0x7f, 0x00, 0x00, 0xc0, 0x7f, 0x00, 0x00, 0xc0, 0x7f,
    0x00, 0x00, 0xc0, 0x7f, 0x00, 0x00, 0xc0, 0x7f, 0x00, 0x00, 0xc0, 0x7f,
    0x00, 0x00, 0xc0, 0x7f, 0x00, 0x00, 0xc0, 0x7f, 0x00, 0x00, 0xc0, 0x7f,
    0x00, 0x00, 0xc0, 0x7f, 0x00, 0x00, 0xc0, 0x7f, 0x00, 0x00, 0xc0, 0x7f,
    0x00, 0x00, 0xc0, 0x7f, 0x00, 0x00, 0xc0, 0x7f, 0x00, 0x00, 0xc0, 0x7f,
    0x00, 0x00, 0xc0, 0x7f, 0x00, 0x00, 0xc0, 0x7f, 0x00, 0x00, 0xc0, 0x7f,
    0x00, 0x00, 0xc0, 0x7f, 0x00, 0x00, 0xc0, 0x7f, 0x00, 0x00, 0xc0, 0x7f,
    0x00, 0x00, 0xc0, 0x7f, 0x00, 0x00, 0xc0, 0x7f, 0x00, 0x00, 0xc0, 0x7f,
    0x00, 0x00, 0xc0, 0x7f, 0x00, 0x00, 0xc0, 0x7f, 0x00, 0x00, 0xc0, 0x7f,
    0x00, 0x00, 0xc0, 0x7f, 0x00, 0x00, 0xc0, 0x7f, 0x00, 0x00, 0xc0, 0x7f,
    0x00, 0x00, 0xc0, 0x7f, 0x00, 0x00, 0xc0, 0x7f, 0x00, 0x00, 0xc0, 0x7f,
    0x00, 0x00, 0xc0, 0x7f, 0x00, 0x00, 0xc0, 0x7f, 0x00, 0x00, 0xc0, 0x7f,
    0x00, 0x00, 0xc0, 0x7f, 0x00, 0x00, 0xc0, 0x7f, 0x00, 0x00, 0xc0, 0x7f,
    0x00, 0x00, 0xc0, 0x7f, 0x00, 0x00, 0xc0, 0x7f, 0x00, 0x00, 0xc0, 0x7f,
    0x00, 0x00, 0xc0, 0x7f, 0x00, 0x00, 0xc0, 0x7f, 0x00, 0x00, 0xc0, 0x7f,
    0x00, 0x00, 0xc0, 0x7f, 0x00, 0x00, 0xc0, 0x7f, 0x00, 0x00, 0xc0, 0x7f,
    0x00, 0x00, 0xc0, 0x7f, 0x00, 0x00, 0xc0, 0x7f, 0x00, 0x00, 0xc0, 0x7f,
    0x00, 0x00, 0xc0, 0x7f, 0x00, 0x00, 0xc0, 0x7f, 0x00, 0x00, 0xc0, 0x7f,
    0x00, 0x00, 0xc0, 0x7f, 0x00, 0x00, 0xc0, 0x7f, 0x00, 0x00, 0xc0, 0x7f,
    0x00, 0x00, 0xc0, 0x7f, 0x00, 0x00, 0xc0, 0x7f, 0x00, 0x00, 0xc0, 0x7f,
    0x00, 0x00, 0xc0, 0x7f, 0x00, 0x00, 0xc0, 0x7f, 0x00, 0x00, 0xc0, 0x7f,
    0x00, 0x00, 0xc0, 0x7f, 0x00, 0x00, 0xc0, 0x7f, 0x00, 0x00, 0xc0, 0x7f,
    0x00, 0x00, 0xc0, 0x7f, 0x00, 0x00, 0xc0, 0x7f, 0x00, 0x00, 0xc0, 0x7f,
    0x00, 0x00, 0xc0, 0x7f, 0x00, 0x00, 0xc0, 0x7f, 0x00, 0x00, 0xc0, 0x7f,
    0x00, 0x00, 0xc0, 0x7f, 0x00, 0x00, 0xc0, 0x7f, 0x00, 0x00, 0xc0, 0x7f,
    0x00, 0x00, 0xc0, 0x7f, 0x00, 0x00, 0xc0, 0x7f, 0x00, 0x00, 0xc0, 0x7f,
    0x00, 0x00, 0xc0, 0x7f, 0x00, 0x00, 0xc0, 0x7f, 0x00, 0x00, 0xc0, 0x7f,
    0x00, 0x00, 0xc0, 0x7f, 0x00, 0x00, 0xc0, 0x7f, 0x00, 0x00, 0xc0, 0x7f,
    0x00, 0x00, 0xc0, 0x7f, 0x00, 0x00, 0xc0, 0x7f, 0x00, 0x00, 0xc0, 0x7f,
    0x00, 0x00, 0xc0, 0x7f, 0x00, 0x00, 0xc0, 0x7f, 0x00, 0x00, 0xc0, 0x7f,
    0x00, 0x00, 0xc0, 0x7f, 0x00, 0x00, 0xc0, 0x7f, 0x00, 0x00, 0xc0, 0x7f,
    0x00, 0x00, 0xc0, 0x7f, 0x00, 0x00, 0xc0, 0x7f, 0x00, 0x00, 0xc0, 0x7f,
    0x00, 0x00, 0xc0, 0x7f, 0x00, 0x00, 0xc0, 0x7f, 0x00, 0x00, 0xc0, 0x7f,
    0x00, 0x00, 0xc0, 0x7f, 0x00, 0x00, 0xc0, 0x7f, 0x00, 0x00, 0xc0, 0x7f,
    0x00, 0x00, 0xc0, 0x7f, 0x00, 0x00, 0xc0, 0x7f, 0x00, 0x00, 0xc0, 0x7f,
    0x00, 0x00, 0xc0, 0x7f, 0x00, 0x00, 0xc0, 0x7f, 0x00, 0x00, 0xc0, 0x7f,
    0x00, 0x00, 0xc0, 0x7f, 0x00, 0x00, 0xc0, 0x7f, 0x00, 0x00, 0xc0, 0x7f,
    0x00, 0x00, 0xc0, 0x7f, 0x00, 0x00, 0xc0, 0x7f, 0x00, 0x00, 0xc0, 0x7f,
    0x00, 0x00, 0xc0, 0x7f, 0x00, 0x00, 0xc0, 0x7f, 0x00, 0x00, 0xc0, 0x7f,
    0x00, 0x00, 0xc0, 0x7f, 0x00, 0x00, 0xc0, 0x7f, 0x00, 0x00, 0xc0, 0x7f,
    0x00, 0x00, 0xc0, 0x7f, 0x00, 0x00, 0xc0, 0x7f, 0x00, 0x00, 0xc0, 0x7f,
    0x00, 0x00, 0xc0, 0x7f, 0x00, 0x00, 0xc0, 0x7f, 0x00, 0x00, 0xc0, 0x7f,
    0x00, 0x00, 0xc0, 0x7f, 0x00, 0x00, 0xc0, 0x7f, 0x00, 0x00, 0xc0, 0x7f,
    0x00, 0x00, 0xc0, 0x7f, 0x00, 0x00, 0xc0, 0x7f, 0x00, 0x00, 0xc0, 0x7f,
    0x00, 0x00, 0xc0, 0x7f, 0x00, 0x00, 0xc0, 0x7f, 0x00, 0x00, 0xc0, 0x7f,
    0x00, 0x00, 0xc0, 0x7f, 0x00, 0x00, 0xc0, 0x7f, 0x00, 0x00, 0xc0, 0x7f,
    0x00, 0x00, 0xc0, 0x7f, 0x00, 0x00, 0xc0, 0x7f, 0x00, 0x00, 0xc0, 0x7f,
    0x00, 0x00, 0xc0, 0x7f, 0x00, 0x00, 0xc0, 0x7f, 0x00, 0x00, 0xc0, 0x7f,
    0x00, 0x00, 0xc0, 0x7f, 0x00, 0x00, 0xc0, 0x7f, 0x00, 0x00, 0xc0, 0x7f,
    0x00, 0x00, 0xc0, 0x7f, 0x00, 0x00, 0xc0, 0x7f, 0x00, 0x00, 0xc0, 0x7f,
    0x00, 0x00, 0xc0, 0x7f, 0x00, 0x00, 0xc0, 0x7f, 0x00, 0x00, 0xc0, 0x7f,
    0x00, 0x00, 0xc0, 0x7f, 0x00, 0x00, 0xc0, 0x7f, 0x00, 0x00, 0xc0, 0x7f,
    0x00, 0x00, 0xc0, 0x7f, 0x00, 0x00, 0xc0, 0x7f, 0x00, 0x00, 0xc0, 0x7f,
    0x00, 0x00, 0xc0, 0x7f, 0x00, 0x00, 0xc0, 0x7f, 0x00, 0x00, 0xc0, 0x7f,
    0x00, 0x00, 0xc0, 0x7f, 0x00, 0x00, 0xc0, 0x7f, 0x00, 0x00, 0xc0, 0x7f,
    0x00, 0x00, 0xc0, 0x7f, 0x00, 0x00, 0xc0, 0x7f, 0x00, 0x00, 0xc0, 0x7f,
    0x00, 0x00, 0xc0, 0x7f, 0x00, 0x00, 0xc0, 0x7f, 0x00, 0x00, 0xc0, 0x7f,
    0x00, 0x00, 0xc0, 0x7f, 0x00, 0x00, 0xc0, 0x7f, 0x00, 0x00, 0xc0, 0x7f,
    0x00, 0x00, 0xc0, 0x7f, 0x00, 0x00, 0xc0, 0x7f, 0x00, 0x00, 0xc0, 0x7f,
    0x00, 0x00, 0xc0, 0x7f, 0x00, 0x00, 0xc0, 0x7f, 0x00, 0x00, 0xc0, 0x7f,
    0x00, 0x00, 0xc0, 0x7f, 0x00, 0x00, 0xc0, 0x7f, 0x00, 0x00, 0xc0, 0x7f,
    0x00, 0x00, 0xc0, 0x7f, 0x00, 0x00, 0xc0, 0x7f, 0x00, 0x00, 0xc0, 0x7f,
    0x00, 0x00, 0xc0, 0x7f, 0x00, 0x00, 0xc0, 0x7f, 0x00, 0x00, 0xc0, 0x7f,
    0x00, 0x00, 0xc0, 0x7f, 0x00, 0x00, 0xc0, 0x7f, 0x00, 0x00, 0xc0, 0x7f,
    0x00, 0x00, 0xc0, 0x7f, 0x00, 0x00, 0xc0, 0x7f, 0x00, 0x00, 0xc0, 0x7f,
    0x00, 0x00, 0xc0, 0x7f, 0x00, 0x00, 0xc0, 0x7f, 0x00, 0x00, 0xc0, 0x7f,
    0x00, 0x00, 0xc0, 0x7f, 0x00, 0x00, 0xc0, 0x7f, 0x00, 0x00, 0xc0, 0x7f,
    0x00, 0x00, 0xc0, 0x7f, 0x00, 0x00, 0xc0, 0x7f, 0x00, 0x00, 0xc0, 0x7f,
    0x00, 0x00, 0xc0, 0x7f, 0x00, 0x00, 0xc0, 0x7f, 0x00, 0x00, 0xc0, 0x7f,
    0x00, 0x00, 0xc0, 0x7f, 0x00, 0x00, 0xc0, 0x7f, 0x00, 0x00, 0xc0, 0x7f,
    0x00, 0x00, 0xc0, 0x7f, 0x00, 0x00, 0xc0, 0x7f, 0x00, 0x00, 0xc0, 0x7f,
    0x00, 0x00, 0xc0, 0x7f, 0x00, 0x00, 0xc0, 0x7f, 0x00, 0x00, 0xc0, 0x7f,
    0x00, 0x00, 0xc0, 0x7f, 0x00, 0x00, 0xc0, 0x7f, 0x00, 0x00, 0xc0, 0x7f,
    0x00, 0x00, 0xc0, 0x7f, 0x00, 0x00, 0xc0, 0x7f, 0x00, 0x00, 0xc0, 0x7f,
    0x00, 0x00, 0xc0, 0x7f, 0x00, 0x00, 0xc0, 0x7f, 0x00, 0x00, 0xc0, 0x7f,
    0x00, 0x00, 0xc0, 0x7f, 0x00, 0x00, 0xc0, 0x7f, 0x00, 0x00, 0xc0, 0x7f,
    0x00, 0x00, 0xc0, 0x7f, 0x00, 0x00, 0xc0, 0x7f, 0x00, 0x00, 0xc0, 0x7f,
    0x00, 0x00, 0xc0, 0x7f, 0x00, 0x00, 0xc0, 0x7f, 0x00, 0x00, 0xc0, 0x7f,
    0x00, 0x00, 0xc0, 0x7f, 0x00, 0x00, 0xc0, 0x7f, 0x00, 0x00, 0xc0, 0x7f,
    0x00, 0x00, 0xc0, 0x7f, 0x00, 0x00, 0xc0, 0x7f, 0x00, 0x00, 0xc0, 0x7f,
    0x00, 0x00, 0xc0, 0x7f, 0x00, 0x00, 0xc0, 0x7f, 0x00, 0x00, 0xc0, 0x7f,
    0x00, 0x00, 0xc0, 0x7f, 0x00, 0x00, 0xc0, 0x7f, 0x00, 0x00, 0xc0, 0x7f,
    0x00, 0x00, 0xc0, 0x7f, 0x00, 0x00, 0xc0, 0x7f, 0x00, 0x00, 0xc0, 0x7f,
    0x00, 0x00, 0xc0, 0x7f, 0x00, 0x00, 0xc0, 0x7f, 0x00, 0x00, 0xc0, 0x7f,
    0x00, 0x00, 0xc0, 0x7f, 0x00, 0x00, 0xc0, 0x7f, 0x00, 0x00, 0xc0, 0x7f,
    0x00, 0x00, 0xc0, 0x7f, 0x00, 0x00, 0xc0, 0x7f, 0x00, 0x00, 0xc0, 0x7f,
    0x00, 0x00, 0xc0, 0x7f, 0x00, 0x00, 0xc0, 0x7f, 0x00, 0x00, 0xc0, 0x7f,
    0x00, 0x00, 0xc0, 0x7f, 0x00, 0x00, 0xc0, 0x7f, 0x00, 0x00, 0xc0, 0x7f,
    0x00, 0x00, 0xc0, 0x7f, 0x00, 0x00, 0xc0, 0x7f, 0x00, 0x00, 0xc0, 0x7f,
    0x00, 0x00, 0xc0, 0x7f, 0x00, 0x00, 0xc0, 0x7f, 0x00, 0x00, 0xc0, 0x7f,
    0x00, 0x00, 0xc0, 0x7f, 0x00, 0x00, 0xc0, 0x7f, 0x00, 0x00, 0xc0, 0x7f,
    0x00, 0x00, 0xc0, 0x7f, 0x00, 0x00, 0xc0, 0x7f, 0x00, 0x00, 0xc0, 0x7f,
    0x00, 0x00, 0xc0, 0x7f, 0x00, 0x00, 0xc0, 0x7f, 0x00, 0x00, 0xc0, 0x7f,
    0x00, 0x00, 0xc0, 0x7f, 0x00, 0x00, 0xc0, 0x7f, 0x00, 0x00, 0xc0, 0x7f,
    0x00, 0x00, 0xc0, 0x7f, 0x00, 0x00, 0xc0, 0x7f, 0x00, 0x00, 0xc0, 0x7f,
    0x00, 0x00, 0xc0, 0x7f, 0x00, 0x00, 0xc0, 0x7f, 0x00, 0x00, 0xc0, 0x7f,
    0x00, 0x00, 0xc0, 0x7f, 0x00, 0x00, 0xc0, 0x7f, 0x00, 0x00, 0xc0, 0x7f,
    0x00, 0x00, 0xc0, 0x7f, 0x00, 0x00, 0xc0, 0x7f, 0x00, 0x00, 0xc0, 0x7f,
    0x00, 0x00, 0xc0, 0x7f, 0x00, 0x00, 0xc0, 0x7f, 0x00, 0x00, 0xc0, 0x7f,
    0x00, 0x00, 0xc0, 0x7f, 0x00, 0x00, 0xc0, 0x7f, 0x00, 0x00, 0xc0, 0x7f,
    0x00, 0x00, 0xc0, 0x7f, 0x00, 0x00, 0xc0, 0x7f, 0x00, 0x00, 0xc0, 0x7f,
    0x00, 0x00, 0xc0, 0x7f, 0x00, 0x00, 0xc0, 0x7f, 0x00, 0x00, 0xc0, 0x7f,
    0x00, 0x00, 0xc0, 0x7f, 0x00, 0x00, 0xc0, 0x7f, 0x00, 0x00, 0xc0, 0x7f,
    0x00, 0x00, 0xc0, 0x7f, 0x00, 0x00, 0xc0, 0x7f, 0x00, 0x00, 0xc0, 0x7f,
    0x00, 0x00, 0xc0, 0x7f, 0x00, 0x00, 0xc0, 0x7f, 0x00, 0x00, 0xc0, 0x7f,
    0x00, 0x00, 0xc0, 0x7f, 0x00, 0x00, 0xc0, 0x7f, 0x00, 0x00, 0xc0, 0x7f,
    0x00, 0x00, 0xc0, 0x7f, 0x00, 0x00, 0xc0, 0x7f, 0x00, 0x00, 0xc0, 0x7f,
    0x00, 0x00, 0xc0, 0x7f, 0x00, 0x00, 0xc0, 0x7f, 0x00, 0x00, 0xc0, 0x7f,
    0x00, 0x00, 0xc0, 0x7f, 0x00, 0x00, 0xc0, 0x7f, 0x00, 0x00, 0xc0, 0x7f,
    0x00, 0x00, 0xc0, 0x7f, 0x00, 0x00, 0xc0, 0x7f, 0x00, 0x00, 0xc0, 0x7f,
    0x00, 0x00, 0xc0, 0x7f, 0x00, 0x00, 0xc0, 0x7f, 0x00, 0x00, 0xc0, 0x7f,
    0x00, 0x00, 0xc0, 0x7f, 0x00, 0x00, 0xc0, 0x7f, 0x00, 0x00, 0xc0, 0x7f,
    0x00, 0x00, 0xc0, 0x7f, 0x00, 0x00, 0xc0, 0x7f, 0x00, 0x00, 0xc0, 0x7f,
    0x00, 0x00, 0xc0, 0x7f, 0x00, 0x00, 0xc0, 0x7f, 0x00, 0x00, 0xc0, 0x7f,
    0x00, 0x00, 0xc0, 0x7f, 0x00, 0x00, 0xc0, 0x7f, 0x00, 0x00, 0xc0, 0x7f,
    0x00, 0x00, 0xc0, 0x7f, 0x00, 0x00, 0xc0, 0x7f, 0x00, 0x00, 0xc0, 0x7f,
    0x00, 0x00, 0xc0, 0x7f, 0x00, 0x00, 0xc0, 0x7f, 0x00, 0x00, 0xc0, 0x7f,
    0x00, 0x00, 0xc0, 0x7f, 0x00, 0x00, 0xc0, 0x7f, 0x00, 0x00, 0xc0, 0x7f,
    0x00, 0x00, 0xc0, 0x7f, 0x00, 0x00, 0xc0, 0x7f, 0x00, 0x00, 0xc0, 0x7f,
    0x00, 0x00, 0xc0, 0x7f, 0x00, 0x00, 0xc0, 0x7f, 0x00, 0x00, 0xc0, 0x7f,
    0x00, 0x00, 0xc0, 0x7f, 0x00, 0x00, 0xc0, 0x7f, 0x00, 0x00, 0xc0, 0x7f,
    0x00, 0x00, 0xc0, 0x7f, 0x00, 0x00, 0xc0, 0x7f, 0x00, 0x00, 0xc0, 0x7f,
    0x00, 0x00, 0xc0, 0x7f, 0x00, 0x00, 0xc0, 0x7f, 0x00, 0x00, 0xc0, 0x7f,
    0x00, 0x00, 0xc0, 0x7f, 0x00, 0x00, 0xc0, 0x7f, 0x00, 0x00, 0xc0, 0x7f,
    0x00, 0x00, 0xc0, 0x7f, 0x00, 0x00, 0xc0, 0x7f, 0x00, 0x00, 0xc0, 0x7f,
    0x00, 0x00, 0xc0, 0x7f, 0x00, 0x00, 0xc0, 0x7f, 0x00, 0x00, 0xc0, 0x7f,
    0x00, 0x00, 0xc0, 0x7f, 0x00, 0x00, 0xc0, 0x7f, 0x00, 0x00, 0xc0, 0x7f,
    0x00, 0x00, 0xc0, 0x7f, 0x00, 0x00, 0xc0, 0x7f, 0x00, 0x00, 0xc0, 0x7f,
    0x00, 0x00, 0xc0, 0x7f, 0x00, 0x00, 0xc0, 0x7f, 0x00, 0x00, 0xc0, 0x7f,
    0x00, 0x00, 0xc0, 0x7f, 0x00, 0x00, 0xc0, 0x7f, 0x00, 0x00, 0xc0, 0x7f,
    0x00, 0x00, 0xc0, 0x7f, 0x00, 0x00, 0xc0, 0x7f, 0x00, 0x00, 0xc0, 0x7f,
    0x00, 0x00, 0xc0, 0x7f, 0x00, 0x00, 0xc0, 0x7f, 0x00, 0x00, 0xc0, 0x7f,
    0x00, 0x00, 0xc0, 0x7f, 0x00, 0x00, 0xc0, 0x7f, 0x00, 0x00, 0xc0, 0x7f,
    0x00, 0x00, 0xc0, 0x7f, 0x00, 0x00, 0xc0, 0x7f, 0x00, 0x00, 0xc0, 0x7f,
    0x00, 0x00, 0xc0, 0x7f, 0x00, 0x00, 0xc0, 0x7f, 0x00, 0x00, 0xc0, 0x7f,
    0x00, 0x00, 0xc0, 0x7f, 0x00, 0x00, 0xc0, 0x7f, 0x00, 0x00, 0xc0, 0x7f,
    0x00, 0x00, 0xc0, 0x7f, 0x00, 0x00, 0xc0, 0x7f, 0x00, 0x00, 0xc0, 0x7f,
    0x00, 0x00, 0xc0, 0x7f, 0x00, 0x00, 0xc0, 0x7f, 0x00, 0x00, 0xc0, 0x7f,
    0x00, 0x00, 0xc0, 0x7f, 0x00, 0x00, 0xc0, 0x7f, 0x00, 0x00, 0xc0, 0x7f,
    0x00, 0x00, 0xc0, 0x7f, 0x00, 0x00, 0xc0, 0x7f, 0x00, 0x00, 0xc0, 0x7f,
    0x00, 0x00, 0xc0, 0x7f, 0x00, 0x00, 0xc0, 0x7f, 0x00, 0x00, 0xc0, 0x7f,
    0x00, 0x00, 0xc0, 0x7f, 0x00, 0x00, 0xc0, 0x7f, 0x00, 0x00, 0xc0, 0x7f,
    0x00, 0x00, 0xc0, 0x7f, 0x00, 0x00, 0xc0, 0x7f, 0x00, 0x00, 0xc0, 0x7f,
    0x00, 0x00, 0xc0, 0x7f, 0x00, 0x00, 0xc0, 0x7f, 0x00, 0x00, 0xc0, 0x7f,
    0x00, 0x00, 0xc0, 0x7f, 0x00, 0x00, 0xc0, 0x7f, 0x00, 0x00, 0xc0, 0x7f,
    0x00, 0x00, 0xc0, 0x7f, 0x00, 0x00, 0xc0, 0x7f, 0x00, 0x00, 0xc0, 0x7f,
    0x00, 0x00, 0xc0, 0x7f, 0x00, 0x00, 0xc0, 0x7f, 0x00, 0x00, 0xc0, 0x7f,
    0x00, 0x00, 0xc0, 0x7f, 0x00, 0x00, 0xc0, 0x7f, 0x00, 0x00, 0xc0, 0x7f,
    0x00, 0x00, 0xc0, 0x7f, 0x00, 0x00, 0xc0, 0x7f, 0x00, 0x00, 0xc0, 0x7f,
    0x00, 0x00, 0xc0, 0x7f, 0x00, 0x00, 0xc0, 0x7f, 0x00, 0x00, 0xc0, 0x7f,
    0x00, 0x00, 0xc0, 0x7f, 0x00, 0x00, 0xc0, 0x7f, 0x00, 0x00, 0xc0, 0x7f,
    0x00, 0x00, 0xc0, 0x7f, 0x00, 0x00, 0xc0, 0x7f, 0x00, 0x00, 0xc0, 0x7f,
    0x00, 0x00, 0xc0, 0x7f, 0x00, 0x00, 0xc0, 0x7f, 0x00, 0x00, 0xc0, 0x7f,
    0x00, 0x00, 0xc0, 0x7f, 0x00, 0x00, 0xc0, 0x7f, 0x00, 0x00, 0xc0, 0x7f,
    0x00, 0x00, 0xc0, 0x7f, 0x00, 0x00, 0xc0, 0x7f, 0x00, 0x00, 0xc0, 0x7f,
    0x00, 0x00, 0xc0, 0x7f, 0x00, 0x00, 0xc0, 0x7f, 0x00, 0x00, 0xc0, 0x7f,
    0x00, 0x00, 0xc0, 0x7f, 0x00, 0x00, 0xc0, 0x7f, 0x00, 0x00, 0xc0, 0x7f,
    0x00, 0x00, 0xc0, 0x7f, 0x00, 0x00, 0xc0, 0x7f, 0x00, 0x00, 0xc0, 0x7f,
    0x00, 0x00, 0xc0, 0x7f, 0x00, 0x00, 0xc0, 0x7f, 0x00, 0x00, 0xc0, 0x7f,
    0x00, 0x00, 0xc0, 0x7f, 0x00, 0x00, 0xc0, 0x7f, 0x00, 0x00, 0xc0, 0x7f,
    0x00, 0x00, 0xc0, 0x7f, 0x00, 0x00, 0xc0, 0x7f, 0x00, 0x00, 0xc0, 0x7f,
    0x00, 0x00, 0xc0, 0x7f, 0x00, 0x00, 0xc0, 0x7f, 0x00, 0x00, 0xc0, 0x7f,
    0x00, 0x00, 0xc0, 0x7f, 0x00, 0x00, 0xc0, 0x7f, 0x00, 0x00, 0xc0, 0x7f,
    0x00, 0x00, 0xc0, 0x7f, 0x00, 0x00, 0xc0, 0x7f, 0x00, 0x00, 0xc0, 0x7f,
    0x00, 0x00, 0xc0, 0x7f, 0x00, 0x00, 0xc0, 0x7f, 0x00, 0x00, 0xc0, 0x7f,
    0x00, 0x00, 0xc0, 0x7f, 0x00, 0x00, 0xc0, 0x7f, 0x00, 0x00, 0xc0, 0x7f,
    0x00, 0x00, 0xc0, 0x7f, 0x00, 0x00, 0xc0, 0x7f, 0x00, 0x00, 0xc0, 0x7f,
    0x00, 0x00, 0xc0, 0x7f, 0x00, 0x00, 0xc0, 0x7f, 0x00, 0x00, 0xc0, 0x7f,
    0x00, 0x00, 0xc0, 0x7f, 0x00, 0x00, 0xc0, 0x7f, 0x00, 0x00, 0xc0, 0x7f,
    0x00, 0x00, 0xc0, 0x7f, 0x00, 0x00, 0xc0, 0x7f, 0x00, 0x00, 0xc0, 0x7f,
    0x00, 0x00, 0xc0, 0x7f, 0x00, 0x00, 0xc0, 0x7f, 0x00, 0x00, 0xc0, 0x7f,
    0x00, 0x00, 0xc0, 0x7f, 0x00, 0x00, 0xc0, 0x7f, 0x00, 0x00, 0xc0, 0x7f,
    0x00, 0x00, 0xc0, 0x7f, 0x00, 0x00, 0xc0, 0x7f, 0x00, 0x00, 0xc0, 0x7f,
    0x00, 0x00, 0xc0, 0x7f, 0x00, 0x00, 0xc0, 0x7f, 0x00, 0x00, 0xc0, 0x7f,
    0x00, 0x00, 0xc0, 0x7f, 0x00, 0x00, 0xc0, 0x7f, 0x00, 0x00, 0xc0, 0x7f,
    0x00, 0x00, 0xc0, 0x7f, 0x00, 0x00, 0xc0, 0x7f, 0x00, 0x00, 0xc0, 0x7f,
    0x00, 0x00, 0xc0, 0x7f, 0x00, 0x00, 0xc0, 0x7f, 0x00, 0x00, 0xc0, 0x7f,
    0x00, 0x00, 0xc0, 0x7f, 0x00, 0x00, 0xc0, 0x7f, 0x00, 0x00, 0xc0, 0x7f,
    0x00, 0x00, 0xc0, 0x7f, 0x00, 0x00, 0xc0, 0x7f, 0x00, 0x00, 0xc0, 0x7f,
    0x00, 0x00, 0xc0, 0x7f, 0x00, 0x00, 0xc0, 0x7f, 0x00, 0x00, 0xc0, 0x7f,
    0x00, 0x00, 0xc0, 0x7f, 0x00, 0x00, 0xc0, 0x7f, 0x00, 0x00, 0xc0, 0x7f,
    0x00, 0x00, 0xc0, 0x7f, 0x00, 0x00, 0xc0, 0x7f, 0x00, 0x00, 0xc0, 0x7f,
    0x00, 0x00, 0xc0, 0x7f, 0x00, 0x00, 0xc0, 0x7f, 0x00, 0x00, 0xc0, 0x7f,
    0x00, 0x00, 0xc0, 0x7f, 0x00, 0x00, 0xc0, 0x7f, 0x00, 0x00, 0xc0, 0x7f,
    0x00, 0x00, 0xc0, 0x7f, 0x00, 0x00, 0xc0, 0x7f, 0x00, 0x00, 0xc0, 0x7f,
    0x00, 0x00, 0xc0, 0x7f, 0x00, 0x00, 0xc0, 0x7f, 0x00, 0x00, 0xc0, 0x7f,
    0x00, 0x00, 0xc0, 0x7f, 0x00, 0x00, 0xc0, 0x7f, 0x00, 0x00, 0xc0, 0x7f,
    0x00, 0x00, 0xc0, 0x7f, 0x00, 0x00, 0xc0, 0x7f, 0x00, 0x00, 0xc0, 0x7f,
    0x00, 0x00, 0xc0, 0x7f, 0x00, 0x00, 0xc0, 0x7f, 0x00, 0x00, 0xc0, 0x7f,
    0x00, 0x00, 0xc0, 0x7f, 0x00, 0x00, 0xc0, 0x7f, 0x00, 0x00, 0xc0, 0x7f,
    0x00, 0x00, 0xc0, 0x7f, 0x00, 0x00, 0xc0, 0x7f, 0x00, 0x00, 0xc0, 0x7f,
    0x00, 0x00, 0xc0, 0x7f, 0x00, 0x00, 0xc0, 0x7f, 0x00, 0x00, 0xc0, 0x7f,
    0x00, 0x00, 0xc0, 0x7f, 0x00, 0x00, 0xc0, 0x7f, 0x00, 0x00, 0xc0, 0x7f,
    0x00, 0x00, 0xc0, 0x7f, 0x00, 0x00, 0xc0, 0x7f, 0x00, 0x00, 0xc0, 0x7f,
    0x00, 0x00, 0xc0, 0x7f, 0x00, 0x00, 0xc0, 0x7f, 0x00, 0x00, 0xc0, 0x7f,
    0x00, 0x00, 0xc0, 0x7f, 0x00, 0x00, 0xc0, 0x7f, 0x00, 0x00, 0xc0, 0x7f,
    0x00, 0x00, 0xc0, 0x7f, 0x00, 0x00, 0xc0, 0x7f, 0x00, 0x00, 0xc0, 0x7f,
    0x00, 0x00, 0xc0, 0x7f, 0x00, 0x00, 0xc0, 0x7f, 0x00, 0x00, 0xc0, 0x7f,
    0x00, 0x00, 0xc0, 0x7f, 0x00, 0x00, 0xc0, 0x7f, 0x00, 0x00, 0xc0, 0x7f,
    0x00, 0x00, 0xc0, 0x7f, 0x00, 0x00, 0xc0, 0x7f, 0x00, 0x00, 0xc0, 0x7f,
    0x00, 0x00, 0xc0, 0x7f, 0x00, 0x00, 0xc0, 0x7f, 0x00, 0x00, 0xc0, 0x7f,
    0x00, 0x00, 0xc0, 0x7f, 0x00, 0x00, 0xc0, 0x7f, 0x00, 0x00, 0xc0, 0x7f,
    0x00, 0x00, 0xc0, 0x7f, 0x00, 0x00, 0xc0, 0x7f, 0x00, 0x00, 0xc0, 0x7f,
    0x00, 0x00, 0xc0, 0x7f, 0x00, 0x00, 0xc0, 0x7f, 0x00, 0x00, 0xc0, 0x7f,
    0x00, 0x00, 0xc0, 0x7f, 0x00, 0x00, 0xc0, 0x7f, 0x00, 0x00, 0xc0, 0x7f,
    0x00, 0x00, 0xc0, 0x7f, 0x00, 0x00, 0xc0, 0x7f, 0x00, 0x00, 0xc0, 0x7f,
    0x00, 0x00, 0xc0, 0x7f, 0x00, 0x00, 0xc0, 0x7f, 0x00, 0x00, 0xc0, 0x7f,
    0x00, 0x00, 0xc0, 0x7f, 0x00, 0x00, 0xc0, 0x7f, 0x00, 0x00, 0xc0, 0x7f,
    0x00, 0x00, 0xc0, 0x7f, 0x00, 0x00, 0xc0, 0x7f, 0x00, 0x00, 0xc0, 0x7f,
    0x00, 0x00, 0xc0, 0x7f, 0x00, 0x00, 0xc0, 0x7f, 0x00, 0x00, 0xc0, 0x7f,
    0x00, 0x00, 0xc0, 0x7f, 0x00, 0x00, 0xc0, 0x7f, 0x00, 0x00, 0xc0, 0x7f,
    0x00, 0x00, 0xc0, 0x7f, 0x00, 0x00, 0xc0, 0x7f, 0x00, 0x00, 0xc0, 0x7f,
    0x00, 0x00, 0xc0, 0x7f, 0x00, 0x00, 0xc0, 0x7f, 0x00, 0x00, 0xc0, 0x7f,
    0x00, 0x00, 0xc0, 0x7f, 0x00, 0x00, 0xc0, 0x7f, 0x00, 0x00, 0xc0, 0x7f,
    0x00, 0x00, 0xc0, 0x7f, 0x00, 0x00, 0xc0, 0x7f, 0x00, 0x00, 0xc0, 0x7f,
    0x00, 0x00, 0xc0, 0x7f, 0x00, 0x00, 0xc0, 0x7f, 0x00, 0x00, 0xc0, 0x7f,
    0x00, 0x00, 0xc0, 0x7f, 0x00, 0x00, 0xc0, 0x7f, 0x00, 0x00, 0xc0, 0x7f,
    0x00, 0x00, 0xc0, 0x7f, 0x00, 0x00, 0xc0, 0x7f, 0x00, 0x00, 0xc0, 0x7f,
    0x00, 0x00, 0xc0, 0x7f, 0x00, 0x00, 0xc0, 0x7f, 0x00, 0x00, 0xc0, 0x7f,
    0x00, 0x00, 0xc0, 0x7f, 0x00, 0x00, 0xc0, 0x7f, 0x00, 0x00, 0xc0, 0x7f,
    0x00, 0x00, 0xc0, 0x7f, 0x00, 0x00, 0xc0, 0x7f, 0x00, 0x00, 0xc0, 0x7f,
    0x00, 0x00, 0xc0, 0x7f, 0x00, 0x00, 0xc0, 0x7f, 0x00, 0x00, 0xc0, 0x7f,
    0x00, 0x00, 0xc0, 0x7f, 0x00, 0x00, 0xc0, 0x7f, 0x00, 0x00, 0xc0, 0x7f,
    0x00, 0x00, 0xc0, 0x7f, 0x00, 0x00, 0xc0, 0x7f, 0x00, 0x00, 0xc0, 0x7f,
    0x00, 0x00, 0xc0, 0x7f, 0x00, 0x00, 0xc0, 0x7f, 0x00, 0x00, 0xc0, 0x7f,
    0x00, 0x00, 0xc0, 0x7f, 0x00, 0x00, 0xc0, 0x7f, 0x00, 0x00, 0xc0, 0x7f,
    0x00, 0x00, 0xc0, 0x7f, 0x00, 0x00, 0xc0, 0x7f, 0x00, 0x00, 0xc0, 0x7f,
    0x00, 0x00, 0xc0, 0x7f, 0x00, 0x00, 0xc0, 0x7f, 0x00, 0x00, 0xc0, 0x7f,
    0x00, 0x00, 0xc0, 0x7f, 0x00, 0x00, 0xc0, 0x7f, 0x00, 0x00, 0xc0, 0x7f,
    0x00, 0x00, 0xc0, 0x7f, 0x00, 0x00, 0xc0, 0x7f, 0x00, 0x00, 0xc0, 0x7f,
    0x00, 0x00, 0xc0, 0x7f, 0x00, 0x00, 0xc0, 0x7f, 0x00, 0x00, 0xc0, 0x7f,
    0x00, 0x00, 0xc0, 0x7f, 0x00, 0x00, 0xc0, 0x7f, 0x00, 0x00, 0xc0, 0x7f,
    0x00, 0x00, 0xc0, 0x7f, 0x00, 0x00, 0xc0, 0x7f, 0x00, 0x00, 0xc0, 0x7f,
    0x00, 0x00, 0xc0, 0x7f, 0x00, 0x00, 0xc0, 0x7f, 0x00, 0x00, 0xc0, 0x7f,
    0x00, 0x00, 0xc0, 0x7f, 0x00, 0x00, 0xc0, 0x7f, 0x00, 0x00, 0xc0, 0x7f,
    0x00, 0x00, 0xc0, 0x7f, 0x00, 0x00, 0xc0, 0x7f, 0x00, 0x00, 0xc0, 0x7f,
    0x00, 0x00, 0xc0, 0x7f, 0x00, 0x00, 0xc0, 0x7f, 0x00, 0x00, 0xc0, 0x7f,
    0x00, 0x00, 0xc0, 0x7f, 0x00, 0x00, 0xc0, 0x7f, 0x00, 0x00, 0xc0, 0x7f,
    0x00, 0x00, 0xc0, 0x7f, 0x00, 0x00, 0xc0, 0x7f, 0x00, 0x00, 0xc0, 0x7f,
    0x00, 0x00, 0xc0, 0x7f, 0x00, 0x00, 0xc0, 0x7f, 0x00, 0x00, 0xc0, 0x7f,
    0x00, 0x00, 0xc0, 0x7f, 0x00, 0x00, 0xc0, 0x7f, 0x00, 0x00, 0xc0, 0x7f,
    0x00, 0x00, 0xc0, 0x7f, 0x00, 0x00, 0xc0, 0x7f, 0x00, 0x00, 0xc0, 0x7f,
    0x00, 0x00, 0xc0, 0x7f, 0x00, 0x00, 0xc0, 0x7f, 0x00, 0x00, 0xc0, 0x7f,
    0x00, 0x00, 0xc0, 0x7f, 0x00, 0x00, 0xc0, 0x7f, 0x00, 0x00, 0xc0, 0x7f,
    0x00, 0x00, 0xc0, 0x7f, 0x00, 0x00, 0xc0, 0x7f, 0x00, 0x00, 0xc0, 0x7f,
    0x00, 0x00, 0xc0, 0x7f, 0x00, 0x00, 0xc0, 0x7f, 0x00, 0x00, 0xc0, 0x7f,
    0x00, 0x00, 0xc0, 0x7f, 0x00, 0x00, 0xc0, 0x7f, 0x00, 0x00, 0xc0, 0x7f,
    0x00, 0x00, 0xc0, 0x7f, 0x00, 0x00, 0xc0, 0x7f, 0x00, 0x00, 0xc0, 0x7f,
    0x00, 0x00, 0xc0, 0x7f, 0x00, 0x00, 0xc0, 0x7f, 0x00, 0x00, 0xc0, 0x7f,
    0x00, 0x00, 0xc0, 0x7f, 0x00, 0x00, 0xc0, 0x7f, 0x00, 0x00, 0xc0, 0x7f,
    0x00, 0x00, 0xc0, 0x7f, 0x00, 0x00, 0xc0, 0x7f, 0x00, 0x00, 0xc0, 0x7f,
    0x00, 0x00, 0xc0, 0x7f, 0x00, 0x00, 0xc0, 0x7f, 0x00, 0x00, 0xc0, 0x7f,
    0x00, 0x00, 0xc0, 0x7f, 0x00, 0x00, 0xc0, 0x7f, 0x00, 0x00, 0xc0, 0x7f,
    0x00, 0x00, 0xc0, 0x7f, 0x00, 0x00, 0xc0, 0x7f, 0x00, 0x00, 0xc0, 0x7f,
    0x00, 0x00, 0xc0, 0x7f, 0x00, 0x00, 0xc0, 0x7f, 0x00, 0x00, 0xc0, 0x7f,
    0x00, 0x00, 0xc0, 0x7f, 0x00, 0x00, 0xc0, 0x7f, 0x00, 0x00, 0xc0, 0x7f,
    0x00, 0x00, 0xc0, 0x7f, 0x00, 0x00, 0xc0, 0x7f, 0x00, 0x00, 0xc0, 0x7f,
    0x00, 0x00, 0xc0, 0x7f, 0x00, 0x00, 0xc0, 0x7f, 0x00, 0x00, 0xc0, 0x7f,
    0x00, 0x00, 0xc0, 0x7f, 0x00, 0x00, 0xc0, 0x7f, 0x00, 0x00, 0xc0, 0x7f,
    0x00, 0x00, 0xc0, 0x7f, 0x00, 0x00, 0xc0, 0x7f, 0x00, 0x00, 0xc0, 0x7f,
    0x00, 0x00, 0xc0, 0x7f, 0x00, 0x00, 0xc0, 0x7f, 0x00, 0x00, 0xc0, 0x7f,
    0x00, 0x00, 0xc0, 0x7f, 0x00, 0x00, 0xc0, 0x7f, 0x00, 0x00, 0xc0, 0x7f,
    0x00, 0x00, 0xc0, 0x7f, 0x00, 0x00, 0xc0, 0x7f, 0x00, 0x00, 0xc0, 0x7f,
    0x00, 0x00, 0xc0, 0x7f, 0x00, 0x00, 0xc0, 0x7f, 0x00, 0x00, 0xc0, 0x7f,
    0x00, 0x00, 0xc0, 0x7f, 0x00, 0x00, 0xc0, 0x7f, 0x00, 0x00, 0xc0, 0x7f,
    0x00, 0x00, 0xc0, 0x7f, 0x00, 0x00, 0xc0, 0x7f, 0x00, 0x00, 0xc0, 0x7f,
    0x00, 0x00, 0xc0, 0x7f, 0x00, 0x00, 0xc0, 0x7f, 0x00, 0x00, 0xc0, 0x7f,
    0x00, 0x00, 0xc0, 0x7f, 0x00, 0x00, 0xc0, 0x7f, 0x00, 0x00, 0xc0, 0x7f,
    0x00, 0x00, 0xc0, 0x7f, 0x00, 0x00, 0xc0, 0x7f, 0x00, 0x00, 0xc0, 0x7f,
    0x00, 0x00, 0xc0, 0x7f, 0x00, 0x00, 0xc0, 0x7f, 0x00, 0x00, 0xc0, 0x7f,
    0x00, 0x00, 0xc0, 0x7f, 0x00, 0x00, 0xc0, 0x7f, 0x00, 0x00, 0xc0, 0x7f,
    0x00, 0x00, 0xc0, 0x7f, 0x00, 0x00, 0xc0, 0x7f, 0x00, 0x00, 0xc0, 0x7f,
    0x00, 0x00, 0xc0, 0x7f, 0x00, 0x00, 0xc0, 0x7f, 0x00, 0x00, 0xc0, 0x7f,
    0x00, 0x00, 0xc0, 0x7f, 0x00, 0x00, 0xc0, 0x7f, 0x00, 0x00, 0xc0, 0x7f,
    0x00, 0x00, 0xc0, 0x7f, 0x00, 0x00, 0xc0, 0x7f, 0x00, 0x00, 0xc0, 0x7f,
    0x00, 0x00, 0xc0, 0x7f, 0x00, 0x00, 0xc0, 0x7f, 0x00, 0x00, 0xc0, 0x7f,
    0x00, 0x00, 0xc0, 0x7f, 0x00, 0x00, 0xc0, 0x7f, 0x00, 0x00, 0xc0, 0x7f,
    0x00, 0x00, 0xc0, 0x7f, 0x00, 0x00, 0xc0, 0x7f, 0x00, 0x00, 0xc0, 0x7f,
    0x00, 0x00, 0xc0, 0x7f, 0x00, 0x00, 0xc0, 0x7f, 0x00, 0x00, 0xc0, 0x7f,
    0x00, 0x00, 0xc0, 0x7f, 0x00, 0x00, 0xc0, 0x7f, 0x00, 0x00, 0xc0, 0x7f,
    0x00, 0x00, 0xc0, 0x7f, 0x00, 0x00, 0xc0, 0x7f, 0x00, 0x00, 0xc0, 0x7f,
    0x00, 0x00, 0xc0, 0x7f, 0x00, 0x00, 0xc0, 0x7f, 0x00, 0x00, 0xc0, 0x7f,
    0x00, 0x00, 0xc0, 0x7f, 0x00, 0x00, 0xc0, 0x7f, 0x00, 0x00, 0xc0, 0x7f,
    0x00, 0x00, 0xc0, 0x7f, 0x00, 0x00, 0xc0, 0x7f, 0x00, 0x00, 0xc0, 0x7f,
    0x00, 0x00, 0xc0, 0x7f, 0x00, 0x00, 0xc0, 0x7f, 0x00, 0x00, 0xc0, 0x7f,
    0x00, 0x00, 0xc0, 0x7f, 0x00, 0x00, 0xc0, 0x7f, 0x00, 0x00, 0xc0, 0x7f,
    0x00, 0x00, 0xc0, 0x7f, 0x00, 0x00, 0xc0, 0x7f, 0x00, 0x00, 0xc0, 0x7f,
    0x00, 0x00, 0xc0, 0x7f, 0x00, 0x00, 0xc0, 0x7f, 0x00, 0x00, 0xc0, 0x7f,
    0x00, 0x00, 0xc0, 0x7f, 0x00, 0x00, 0xc0, 0x7f, 0x00, 0x00, 0xc0, 0x7f,
    0x00, 0x00, 0xc0, 0x7f, 0x00, 0x00, 0xc0, 0x7f, 0x00, 0x00, 0xc0, 0x7f,
    0x00, 0x00, 0xc0, 0x7f, 0x00, 0x00, 0xc0, 0x7f, 0x00, 0x00, 0xc0, 0x7f,
    0x00, 0x00, 0xc0, 0x7f, 0x00, 0x00, 0xc0, 0x7f, 0x00, 0x00, 0xc0, 0x7f,
    0x00, 0x00, 0xc0, 0x7f, 0x00, 0x00, 0xc0, 0x7f, 0x00, 0x00, 0xc0, 0x7f,
    0x00, 0x00, 0xc0, 0x7f, 0x00, 0x00, 0xc0, 0x7f, 0x00, 0x00, 0xc0, 0x7f,
    0x00, 0x00, 0xc0, 0x7f, 0x00, 0x00, 0xc0, 0x7f, 0x00, 0x00, 0xc0, 0x7f,
    0x00, 0x00, 0xc0, 0x7f, 0x00, 0x00, 0xc0, 0x7f, 0x00, 0x00, 0xc0, 0x7f,
    0x00, 0x00, 0xc0, 0x7f, 0x00, 0x00, 0xc0, 0x7f, 0x00, 0x00, 0xc0, 0x7f,
    0x00, 0x00, 0xc0, 0x7f, 0x00, 0x00, 0xc0, 0x7f, 0x00, 0x00, 0xc0, 0x7f,
    0x00, 0x00, 0xc0, 0x7f, 0x00, 0x00, 0xc0, 0x7f, 0x00, 0x00, 0xc0, 0x7f,
    0x00, 0x00, 0xc0, 0x7f, 0x00, 0x00, 0xc0, 0x7f, 0x00, 0x00, 0xc0, 0x7f,
    0x00, 0x00, 0xc0, 0x7f, 0x00, 0x00, 0xc0, 0x7f, 0x00, 0x00, 0xc0, 0x7f,
    0x00, 0x00, 0xc0, 0x7f, 0x00, 0x00, 0xc0, 0x7f, 0x00, 0x00, 0xc0, 0x7f,
    0x00, 0x00, 0xc0, 0x7f, 0x00, 0x00, 0xc0, 0x7f, 0x00, 0x00, 0xc0, 0x7f,
    0x00, 0x00, 0xc0, 0x7f, 0x00, 0x00, 0xc0, 0x7f, 0x00, 0x00, 0xc0, 0x7f,
    0x00, 0x00, 0xc0, 0x7f, 0x00, 0x00, 0xc0, 0x7f, 0x00, 0x00, 0xc0, 0x7f,
    0x00, 0x00, 0xc0, 0x7f, 0x00, 0x00, 0xc0, 0x7f, 0x00, 0x00, 0xc0, 0x7f,
    0x00, 0x00, 0xc0, 0x7f, 0x00, 0x00, 0xc0, 0x7f, 0x00, 0x00, 0xc0, 0x7f,
    0x00, 0x00, 0xc0, 0x7f, 0x00, 0x00, 0xc0, 0x7f, 0x00, 0x00, 0xc0, 0x7f,
    0x00, 0x00, 0xc0, 0x7f, 0x00, 0x00, 0xc0, 0x7f, 0x00, 0x00, 0xc0, 0x7f,
    0x00, 0x00, 0xc0, 0x7f, 0x00, 0x00, 0xc0, 0x7f, 0x00, 0x00, 0xc0, 0x7f,
    0x00, 0x00, 0xc0, 0x7f, 0x00, 0x00, 0xc0, 0x7f, 0x00, 0x00, 0xc0, 0x7f,
    0x00, 0x00, 0xc0, 0x7f, 0x00, 0x00, 0xc0, 0x7f, 0x00, 0x00, 0xc0, 0x7f,
    0x00, 0x00, 0xc0, 0x7f, 0x00, 0x00, 0xc0, 0x7f, 0x00, 0x00, 0xc0, 0x7f,
    0x00, 0x00, 0xc0, 0x7f, 0x00, 0x00, 0xc0, 0x7f, 0x00, 0x00, 0xc0, 0x7f,
    0x00, 0x00, 0xc0, 0x7f, 0x00, 0x00, 0xc0, 0x7f, 0x00, 0x00, 0xc0, 0x7f,
    0x00, 0x00, 0xc0, 0x7f, 0x00, 0x00, 0xc0, 0x7f, 0x00, 0x00, 0xc0, 0x7f,
    0x00, 0x00, 0xc0, 0x7f, 0x00, 0x00, 0xc0, 0x7f, 0x00, 0x00, 0xc0, 0x7f,
    0x00, 0x00, 0xc0, 0x7f, 0x00, 0x00, 0xc0, 0x7f, 0x00, 0x00, 0xc0, 0x7f,
    0x00, 0x00, 0xc0, 0x7f, 0x00, 0x00, 0xc0, 0x7f, 0x00, 0x00, 0xc0, 0x7f,
    0x00, 0x00, 0xc0, 0x7f, 0x00, 0x00, 0xc0, 0x7f, 0x00, 0x00, 0xc0, 0x7f,
    0x00, 0x00, 0xc0, 0x7f, 0x00, 0x00, 0xc0, 0x7f, 0x00, 0x00, 0xc0, 0x7f,
    0x00, 0x00, 0xc0, 0x7f, 0x00, 0x00, 0xc0, 0x7f, 0x00, 0x00, 0xc0, 0x7f,
    0x00, 0x00, 0xc0, 0x7f, 0x00, 0x00, 0xc0, 0x7f, 0x00, 0x00, 0xc0, 0x7f,
    0x00, 0x00, 0xc0, 0x7f, 0x00, 0x00, 0xc0, 0x7f, 0x00, 0x00, 0xc0, 0x7f,
    0x00, 0x00, 0xc0, 0x7f, 0x00, 0x00, 0xc0, 0x7f, 0x00, 0x00, 0xc0, 0x7f,
    0x00, 0x00, 0xc0, 0x7f, 0x00, 0x00, 0xc0, 0x7f, 0x00, 0x00, 0xc0, 0x7f,
    0x00, 0x00, 0xc0, 0x7f, 0x00, 0x00, 0xc0, 0x7f, 0x00, 0x00, 0xc0, 0x7f,
    0x00, 0x00, 0xc0, 0x7f, 0x00, 0x00, 0xc0, 0x7f, 0x00, 0x00, 0xc0, 0x7f,
    0x00, 0x00, 0xc0, 0x7f, 0x00, 0x00, 0xc0, 0x7f, 0x00, 0x00, 0xc0, 0x7f,
    0x00, 0x00, 0xc0, 0x7f, 0x00, 0x00, 0xc0, 0x7f, 0x00, 0x00, 0xc0, 0x7f,
    0x00, 0x00, 0xc0, 0x7f, 0x00, 0x00, 0xc0, 0x7f, 0x00, 0x00, 0xc0, 0x7f,
    0x00, 0x00, 0xc0, 0x7f, 0x00, 0x00, 0xc0, 0x7f, 0x00, 0x00, 0xc0, 0x7f,
    0x00, 0x00, 0xc0, 0x7f, 0x00, 0x00, 0xc0, 0x7f, 0x00, 0x00, 0xc0, 0x7f,
    0x00, 0x00, 0xc0, 0x7f, 0x00, 0x00, 0xc0, 0x7f, 0x00, 0x00, 0xc0, 0x7f,
    0x00, 0x00, 0xc0, 0x7f, 0x00, 0x00, 0xc0, 0x7f, 0x00, 0x00, 0xc0, 0x7f,
    0x00, 0x00, 0xc0, 0x7f, 0x00, 0x00, 0xc0, 0x7f, 0x00, 0x00, 0xc0, 0x7f,
    0x00, 0x00, 0xc0, 0x7f, 0x00, 0x00, 0xc0, 0x7f, 0x00, 0x00, 0xc0, 0x7f,
    0x00, 0x00, 0xc0, 0x7f, 0x00, 0x00, 0xc0, 0x7f, 0x00, 0x00, 0xc0, 0x7f,
    0x00, 0x00, 0xc0, 0x7f, 0x00, 0x00, 0xc0, 0x7f, 0x00, 0x00, 0xc0, 0x7f,
    0x00, 0x00, 0xc0, 0x7f, 0x00, 0x00, 0xc0, 0x7f, 0x00, 0x00, 0xc0, 0x7f,
    0x00, 0x00, 0xc0, 0x7f, 0x00, 0x00, 0xc0, 0x7f, 0x00, 0x00, 0xc0, 0x7f,
    0x00, 0x00, 0xc0, 0x7f, 0x00, 0x00, 0xc0, 0x7f, 0x00, 0x00, 0xc0, 0x7f,
    0x00, 0x00, 0xc0, 0x7f, 0x00, 0x00, 0xc0, 0x7f, 0x00, 0x00, 0xc0, 0x7f,
    0x00, 0x00, 0xc0, 0x7f, 0x00, 0x00, 0xc0, 0x7f, 0x00, 0x00, 0xc0, 0x7f,
    0x00, 0x00, 0xc0, 0x7f, 0x00, 0x00, 0xc0, 0x7f, 0x00, 0x00, 0xc0, 0x7f,
    0x00, 0x00, 0xc0, 0x7f, 0x00, 0x00, 0xc0, 0x7f, 0x00, 0x00, 0xc0, 0x7f,
    0x00, 0x00, 0xc0, 0x7f, 0x00, 0x00, 0xc0, 0x7f, 0x00, 0x00, 0xc0, 0x7f,
    0x00, 0x00, 0xc0, 0x7f, 0x00, 0x00, 0xc0, 0x7f, 0x00, 0x00, 0xc0, 0x7f,
    0x00, 0x00, 0xc0, 0x7f, 0x00, 0x00, 0xc0, 0x7f, 0x00, 0x00, 0xc0, 0x7f,
    0x00, 0x00, 0xc0, 0x7f, 0x00, 0x00, 0xc0, 0x7f, 0x00, 0x00, 0xc0, 0x7f,
    0x00, 0x00, 0xc0, 0x7f, 0x00, 0x00, 0xc0, 0x7f, 0x00, 0x00, 0xc0, 0x7f,
    0x00, 0x00, 0xc0, 0x7f, 0x00, 0x00, 0xc0, 0x7f, 0x00, 0x00, 0xc0, 0x7f,
    0x00, 0x00, 0xc0, 0x7f, 0x00, 0x00, 0xc0, 0x7f, 0x00, 0x00, 0xc0, 0x7f,
    0x00, 0x00, 0xc0, 0x7f, 0x00, 0x00, 0xc0, 0x7f, 0x00, 0x00, 0xc0, 0x7f,
    0x00, 0x00, 0xc0, 0x7f, 0x00, 0x00, 0xc0, 0x7f, 0x00, 0x00, 0xc0, 0x7f,
    0x00, 0x00, 0xc0, 0x7f, 0x00, 0x00, 0xc0, 0x7f, 0x00, 0x00, 0xc0, 0x7f,
    0x00, 0x00, 0xc0, 0x7f, 0x00, 0x00, 0xc0, 0x7f, 0x00, 0x00, 0xc0, 0x7f,
    0x00, 0x00, 0xc0, 0x7f, 0x00, 0x00, 0xc0, 0x7f, 0x00, 0x00, 0xc0, 0x7f,
    0x00, 0x00, 0xc0, 0x7f, 0x00, 0x00, 0xc0, 0x7f, 0x00, 0x00, 0xc0, 0x7f,
    0x00, 0x00, 0xc0, 0x7f, 0x00, 0x00, 0xc0, 0x7f, 0x00, 0x00, 0xc0, 0x7f,
    0x00, 0x00, 0xc0, 0x7f, 0x00, 0x00, 0xc0, 0x7f, 0x00, 0x00, 0xc0, 0x7f,
    0x00, 0x00, 0xc0, 0x7f, 0x00, 0x00, 0xc0, 0x7f, 0x00, 0x00, 0xc0, 0x7f,
    0x00, 0x00, 0xc0, 0x7f, 0x00, 0x00, 0xc0, 0x7f, 0x00, 0x00, 0xc0, 0x7f,
    0x00, 0x00, 0xc0, 0x7f, 0x00, 0x00, 0xc0, 0x7f, 0x00, 0x00, 0xc0, 0x7f,
    0x00, 0x00, 0xc0, 0x7f, 0x00, 0x00, 0xc0, 0x7f, 0x00, 0x00, 0xc0, 0x7f,
    0x00, 0x00, 0xc0, 0x7f, 0x00, 0x00, 0xc0, 0x7f, 0x00, 0x00, 0xc0, 0x7f,
    0x00, 0x00, 0xc0, 0x7f, 0x00, 0x00, 0xc0, 0x7f, 0x00, 0x00, 0xc0, 0x7f,
    0x00, 0x00, 0xc0, 0x7f, 0x00, 0x00, 0xc0, 0x7f, 0x00, 0x00, 0xc0, 0x7f,
    0x00, 0x00, 0xc0, 0x7f, 0x00, 0x00, 0xc0, 0x7f, 0x00, 0x00, 0xc0, 0x7f,
    0x00, 0x00, 0xc0, 0x7f, 0x00, 0x00, 0xc0, 0x7f, 0x00, 0x00, 0xc0, 0x7f,
    0x00, 0x00, 0xc0, 0x7f, 0x00, 0x00, 0xc0, 0x7f, 0x00, 0x00, 0xc0, 0x7f,
    0x00, 0x00, 0xc0, 0x7f, 0x00, 0x00, 0xc0, 0x7f, 0x00, 0x00, 0xc0, 0x7f,
    0x00, 0x00, 0xc0, 0x7f, 0x00, 0x00, 0xc0, 0x7f, 0x00, 0x00, 0xc0, 0x7f,
    0x00, 0x00, 0xc0, 0x7f, 0x00, 0x00, 0xc0, 0x7f, 0x00, 0x00, 0xc0, 0x7f,
    0x00, 0x00, 0xc0, 0x7f, 0x00, 0x00, 0xc0, 0x7f, 0x00, 0x00, 0xc0, 0x7f,
    0x00, 0x00, 0xc0, 0x7f, 0x00, 0x00, 0xc0, 0x7f, 0x00, 0x00, 0xc0, 0x7f,
    0x00, 0x00, 0xc0, 0x7f, 0x00, 0x00, 0xc0, 0x7f, 0x00, 0x00, 0xc0, 0x7f,
    0x00, 0x00, 0xc0, 0x7f, 0x00, 0x00, 0xc0, 0x7f, 0x00, 0x00, 0xc0, 0x7f,
    0x00, 0x00, 0xc0, 0x7f, 0x00, 0x00, 0xc0, 0x7f, 0x00, 0x00, 0xc0, 0x7f,
    0x00, 0x00, 0xc0, 0x7f, 0x00, 0x00, 0xc0, 0x7f, 0x00, 0x00, 0xc0, 0x7f,
    0x00, 0x00, 0xc0, 0x7f, 0x00, 0x00, 0xc0, 0x7f, 0x00, 0x00, 0xc0, 0x7f,
    0x00, 0x00, 0xc0, 0x7f, 0x00, 0x00, 0xc0, 0x7f, 0x00, 0x00, 0xc0, 0x7f,
    0x00, 0x00, 0xc0, 0x7f, 0x00, 0x00, 0xc0, 0x7f, 0x00, 0x00, 0xc0, 0x7f,
    0x00, 0x00, 0xc0, 0x7f, 0x00, 0x00, 0xc0, 0x7f, 0x00, 0x00, 0xc0, 0x7f,
    0x00, 0x00, 0xc0, 0x7f, 0x00, 0x00, 0xc0, 0x7f, 0x00, 0x00, 0xc0, 0x7f,
    0x00, 0x00, 0xc0, 0x7f, 0x00, 0x00, 0xc0, 0x7f, 0x00, 0x00, 0xc0, 0x7f,
    0x00, 0x00, 0xc0, 0x7f, 0x00, 0x00, 0xc0, 0x7f, 0x00, 0x00, 0xc0, 0x7f,
    0x00, 0x00, 0xc0, 0x7f, 0x00, 0x00, 0xc0, 0x7f, 0x00, 0x00, 0xc0, 0x7f,
    0x00, 0x00, 0xc0, 0x7f, 0x00, 0x00, 0xc0, 0x7f, 0x00, 0x00, 0xc0, 0x7f,
    0x00, 0x00, 0xc0, 0x7f, 0x00, 0x00, 0xc0, 0x7f, 0x00, 0x00, 0xc0, 0x7f,
    0x00, 0x00, 0xc0, 0x7f, 0x00, 0x00, 0xc0, 0x7f, 0x00, 0x00, 0xc0, 0x7f,
    0x00, 0x00, 0xc0, 0x7f, 0x00, 0x00, 0xc0, 0x7f, 0x00, 0x00, 0xc0, 0x7f,
    0x00, 0x00, 0xc0, 0x7f, 0x00, 0x00, 0xc0, 0x7f, 0x00, 0x00, 0xc0, 0x7f,
    0x00, 0x00, 0xc0, 0x7f, 0x00, 0x00, 0xc0, 0x7f, 0x00, 0x00, 0xc0, 0x7f,
    0x00, 0x00, 0xc0, 0x7f, 0x00, 0x00, 0xc0, 0x7f, 0x00, 0x00, 0xc0, 0x7f,
    0x00, 0x00, 0xc0, 0x7f, 0x00, 0x00, 0xc0, 0x7f, 0x00, 0x00, 0xc0, 0x7f,
    0x00, 0x00, 0xc0, 0x7f, 0x00, 0x00, 0xc0, 0x7f, 0x00, 0x00, 0xc0, 0x7f,
    0x00, 0x00, 0xc0, 0x7f, 0x00, 0x00, 0xc0, 0x7f, 0x00, 0x00, 0xc0, 0x7f,
    0x00, 0x00, 0xc0, 0x7f, 0x00, 0x00, 0xc0, 0x7f, 0x00, 0x00, 0xc0, 0x7f,
    0x00, 0x00, 0xc0, 0x7f, 0x00, 0x00, 0xc0, 0x7f, 0x00, 0x00, 0xc0, 0x7f,
    0x00, 0x00, 0xc0, 0x7f, 0x00, 0x00, 0xc0, 0x7f, 0x00, 0x00, 0xc0, 0x7f,
    0x00, 0x00, 0xc0, 0x7f, 0x00, 0x00, 0xc0, 0x7f, 0x00, 0x00, 0xc0, 0x7f,
    0x00, 0x00, 0xc0, 0x7f, 0x00, 0x00, 0xc0, 0x7f, 0x00, 0x00, 0xc0, 0x7f,
    0x00, 0x00, 0xc0, 0x7f, 0x00, 0x00, 0xc0, 0x7f, 0x00, 0x00, 0xc0, 0x7f,
    0x00, 0x00, 0xc0, 0x7f, 0x00, 0x00, 0xc0, 0x7f, 0x00, 0x00, 0xc0, 0x7f,
    0x00, 0x00, 0xc0, 0x7f, 0x00, 0x00, 0xc0, 0x7f, 0x00, 0x00, 0xc0, 0x7f,
    0x00, 0x00, 0xc0, 0x7f, 0x00, 0x00, 0xc0, 0x7f, 0x00, 0x00, 0xc0, 0x7f,
    0x00, 0x00, 0xc0, 0x7f, 0x00, 0x00, 0xc0, 0x7f, 0x00, 0x00, 0xc0, 0x7f,
    0x00, 0x00, 0xc0, 0x7f, 0x00, 0x00, 0xc0, 0x7f, 0x00, 0x00, 0xc0, 0x7f,
    0x00, 0x00, 0xc0, 0x7f, 0x00, 0x00, 0xc0, 0x7f, 0x00, 0x00, 0xc0, 0x7f,
    0x00, 0x00, 0xc0, 0x7f, 0x00, 0x00, 0xc0, 0x7f, 0x00, 0x00, 0xc0, 0x7f,
    0x00, 0x00, 0xc0, 0x7f, 0x00, 0x00, 0xc0, 0x7f, 0x00, 0x00, 0xc0, 0x7f,
    0x00, 0x00, 0xc0, 0x7f, 0x00, 0x00, 0xc0, 0x7f, 0x00, 0x00, 0xc0, 0x7f,
    0x00, 0x00, 0xc0, 0x7f, 0x00, 0x00, 0xc0, 0x7f, 0x00, 0x00, 0xc0, 0x7f,
    0x00, 0x00, 0xc0, 0x7f, 0x00, 0x00, 0xc0, 0x7f, 0x00, 0x00, 0xc0, 0x7f,
    0x00, 0x00, 0xc0, 0x7f, 0x00, 0x00, 0xc0, 0x7f, 0x00, 0x00, 0xc0, 0x7f,
    0x00, 0x00, 0xc0, 0x7f, 0x00, 0x00, 0xc0, 0x7f, 0x00, 0x00, 0xc0, 0x7f,
    0x00, 0x00, 0xc0, 0x7f, 0x00, 0x00, 0xc0, 0x7f, 0x00, 0x00, 0xc0, 0x7f,
    0x00, 0x00, 0xc0, 0x7f, 0x00, 0x00, 0xc0, 0x7f, 0x00, 0x00, 0xc0, 0x7f,
    0x00, 0x00, 0xc0, 0x7f, 0x00, 0x00, 0xc0, 0x7f, 0x00, 0x00, 0xc0, 0x7f,
    0x00, 0x00, 0xc0, 0x7f, 0x00, 0x00, 0xc0, 0x7f, 0x00, 0x00, 0xc0, 0x7f,
    0x00, 0x00, 0xc0, 0x7f, 0x00, 0x00, 0xc0, 0x7f, 0x00, 0x00, 0xc0, 0x7f,
    0x00, 0x00, 0xc0, 0x7f, 0x00, 0x00, 0xc0, 0x7f, 0x00, 0x00, 0xc0, 0x7f,
    0x00, 0x00, 0xc0, 0x7f, 0x00, 0x00, 0xc0, 0x7f, 0x00, 0x00, 0xc0, 0x7f,
    0x00, 0x00, 0xc0, 0x7f, 0x00, 0x00, 0xc0, 0x7f, 0x00, 0x00, 0xc0, 0x7f,
    0x00, 0x00, 0xc0, 0x7f, 0x00, 0x00, 0xc0, 0x7f, 0x00, 0x00, 0xc0, 0x7f,
    0x00, 0x00, 0xc0, 0x7f, 0x00, 0x00, 0xc0, 0x7f, 0x00, 0x00, 0xc0, 0x7f,
    0x00, 0x00, 0xc0, 0x7f, 0x00, 0x00, 0xc0, 0x7f, 0x00, 0x00, 0xc0, 0x7f,
    0x00, 0x00, 0xc0, 0x7f, 0x00, 0x00, 0xc0, 0x7f, 0x00, 0x00, 0xc0, 0x7f,
    0x00, 0x00, 0xc0, 0x7f, 0x52, 0xf7, 0xff, 0xff, 0x04, 0x00, 0x00, 0x00,
    0x04, 0x00, 0x00, 0x00, 0x00, 0x00, 0xc0, 0x7f, 0x62, 0xf7, 0xff, 0xff,
    0x04, 0x00, 0x00, 0x00, 0x80, 0x00, 0x00, 0x00, 0x00, 0x00, 0xc0, 0x7f,
    0x00, 0x00, 0xc0, 0x7f, 0x00, 0x00, 0xc0, 0x7f, 0x00, 0x00, 0xc0, 0x7f,
    0x00, 0x00, 0xc0, 0x7f, 0x00, 0x00, 0xc0, 0x7f, 0x00, 0x00, 0xc0, 0x7f,
    0x00, 0x00, 0xc0, 0x7f, 0x00, 0x00, 0xc0, 0x7f, 0x00, 0x00, 0xc0, 0x7f,
    0x00, 0x00, 0xc0, 0x7f, 0x00, 0x00, 0xc0, 0x7f, 0x00, 0x00, 0xc0, 0x7f,
    0x00, 0x00, 0xc0, 0x7f, 0x00, 0x00, 0xc0, 0x7f, 0x00, 0x00, 0xc0, 0x7f,
    0x00, 0x00, 0xc0, 0x7f, 0x00, 0x00, 0xc0, 0x7f, 0x00, 0x00, 0xc0, 0x7f,
    0x00, 0x00, 0xc0, 0x7f, 0x00, 0x00, 0xc0, 0x7f, 0x00, 0x00, 0xc0, 0x7f,
    0x00, 0x00, 0xc0, 0x7f, 0x00, 0x00, 0xc0, 0x7f, 0x00, 0x00, 0xc0, 0x7f,
    0x00, 0x00, 0xc0, 0x7f, 0x00, 0x00, 0xc0, 0x7f, 0x00, 0x00, 0xc0, 0x7f,
    0x00, 0x00, 0xc0, 0x7f, 0x00, 0x00, 0xc0, 0x7f, 0x00, 0x00, 0xc0, 0x7f,
    0x00, 0x00, 0xc0, 0x7f, 0x04, 0xf2, 0xff, 0xff, 0xf2, 0xf7, 0xff, 0xff,
    0x04, 0x00, 0x00, 0x00, 0x00, 0x08, 0x00, 0x00, 0x00, 0x00, 0xc0, 0x7f,
    0x00, 0x00, 0xc0, 0x7f, 0x00, 0x00, 0xc0, 0x7f, 0x00, 0x00, 0xc0, 0x7f,
    0x00, 0x00, 0xc0, 0x7f, 0x00, 0x00, 0xc0, 0x7f, 0x00, 0x00, 0xc0, 0x7f,
    0x00, 0x00, 0xc0, 0x7f, 0x00, 0x00, 0xc0, 0x7f, 0x00, 0x00, 0xc0, 0x7f,
    0x00, 0x00, 0xc0, 0x7f, 0x00, 0x00, 0xc0, 0x7f, 0x00, 0x00, 0xc0, 0x7f,
    0x00, 0x00, 0xc0, 0x7f, 0x00, 0x00, 0xc0, 0x7f, 0x00, 0x00, 0xc0, 0x7f,
    0x00, 0x00, 0xc0, 0x7f, 0x00, 0x00, 0xc0, 0x7f, 0x00, 0x00, 0xc0, 0x7f,
    0x00, 0x00, 0xc0, 0x7f, 0x00, 0x00, 0xc0, 0x7f, 0x00, 0x00, 0xc0, 0x7f,
    0x00, 0x00, 0xc0, 0x7f, 0x00, 0x00, 0xc0, 0x7f, 0x00, 0x00, 0xc0, 0x7f,
    0x00, 0x00, 0xc0, 0x7f, 0x00, 0x00, 0xc0, 0x7f, 0x00, 0x00, 0xc0, 0x7f,
    0x00, 0x00, 0xc0, 0x7f, 0x00, 0x00, 0xc0, 0x7f, 0x00, 0x00, 0xc0, 0x7f,
    0x00, 0x00, 0xc0, 0x7f, 0x00, 0x00, 0xc0, 0x7f, 0x00, 0x00, 0xc0, 0x7f,
    0x00, 0x00, 0xc0, 0x7f, 0x00, 0x00, 0xc0, 0x7f, 0x00, 0x00, 0xc0, 0x7f,
    0x00, 0x00, 0xc0, 0x7f, 0x00, 0x00, 0xc0, 0x7f, 0x00, 0x00, 0xc0, 0x7f,
    0x00, 0x00, 0xc0, 0x7f, 0x00, 0x00, 0xc0, 0x7f, 0x00, 0x00, 0xc0, 0x7f,
    0x00, 0x00, 0xc0, 0x7f, 0x00, 0x00, 0xc0, 0x7f, 0x00, 0x00, 0xc0, 0x7f,
    0x00, 0x00, 0xc0, 0x7f, 0x00, 0x00, 0xc0, 0x7f, 0x00, 0x00, 0xc0, 0x7f,
    0x00, 0x00, 0xc0, 0x7f, 0x00, 0x00, 0xc0, 0x7f, 0x00, 0x00, 0xc0, 0x7f,
    0x00, 0x00, 0xc0, 0x7f, 0x00, 0x00, 0xc0, 0x7f, 0x00, 0x00, 0xc0, 0x7f,
    0x00, 0x00, 0xc0, 0x7f, 0x00, 0x00, 0xc0, 0x7f, 0x00, 0x00, 0xc0, 0x7f,
    0x00, 0x00, 0xc0, 0x7f, 0x00, 0x00, 0xc0, 0x7f, 0x00, 0x00, 0xc0, 0x7f,
    0x00, 0x00, 0xc0, 0x7f, 0x00, 0x00, 0xc0, 0x7f, 0x00, 0x00, 0xc0, 0x7f,
    0x00, 0x00, 0xc0, 0x7f, 0x00, 0x00, 0xc0, 0x7f, 0x00, 0x00, 0xc0, 0x7f,
    0x00, 0x00, 0xc0, 0x7f, 0x00, 0x00, 0xc0, 0x7f, 0x00, 0x00, 0xc0, 0x7f,
    0x00, 0x00, 0xc0, 0x7f, 0x00, 0x00, 0xc0, 0x7f, 0x00, 0x00, 0xc0, 0x7f,
    0x00, 0x00, 0xc0, 0x7f, 0x00, 0x00, 0xc0, 0x7f, 0x00, 0x00, 0xc0, 0x7f,
    0x00, 0x00, 0xc0, 0x7f, 0x00, 0x00, 0xc0, 0x7f, 0x00, 0x00, 0xc0, 0x7f,
    0x00, 0x00, 0xc0, 0x7f, 0x00, 0x00, 0xc0, 0x7f, 0x00, 0x00, 0xc0, 0x7f,
    0x00, 0x00, 0xc0, 0x7f, 0x00, 0x00, 0xc0, 0x7f, 0x00, 0x00, 0xc0, 0x7f,
    0x00, 0x00, 0xc0, 0x7f, 0x00, 0x00, 0xc0, 0x7f, 0x00, 0x00, 0xc0, 0x7f,
    0x00, 0x00, 0xc0, 0x7f, 0x00, 0x00, 0xc0, 0x7f, 0x00, 0x00, 0xc0, 0x7f,
    0x00, 0x00, 0xc0, 0x7f, 0x00, 0x00, 0xc0, 0x7f, 0x00, 0x00, 0xc0, 0x7f,
    0x00, 0x00, 0xc0, 0x7f, 0x00, 0x00, 0xc0, 0x7f, 0x00, 0x00, 0xc0, 0x7f,
    0x00, 0x00, 0xc0, 0x7f, 0x00, 0x00, 0xc0, 0x7f, 0x00, 0x00, 0xc0, 0x7f,
    0x00, 0x00, 0xc0, 0x7f, 0x00, 0x00, 0xc0, 0x7f, 0x00, 0x00, 0xc0, 0x7f,
    0x00, 0x00, 0xc0, 0x7f, 0x00, 0x00, 0xc0, 0x7f, 0x00, 0x00, 0xc0, 0x7f,
    0x00, 0x00, 0xc0, 0x7f, 0x00, 0x00, 0xc0, 0x7f, 0x00, 0x00, 0xc0, 0x7f,
    0x00, 0x00, 0xc0, 0x7f, 0x00, 0x00, 0xc0, 0x7f, 0x00, 0x00, 0xc0, 0x7f,
    0x00, 0x00, 0xc0, 0x7f, 0x00, 0x00, 0xc0, 0x7f, 0x00, 0x00, 0xc0, 0x7f,
    0x00, 0x00, 0xc0, 0x7f, 0x00, 0x00, 0xc0, 0x7f, 0x00, 0x00, 0xc0, 0x7f,
    0x00, 0x00, 0xc0, 0x7f, 0x00, 0x00, 0xc0, 0x7f, 0x00, 0x00, 0xc0, 0x7f,
    0x00, 0x00, 0xc0, 0x7f, 0x00, 0x00, 0xc0, 0x7f, 0x00, 0x00, 0xc0, 0x7f,
    0x00, 0x00, 0xc0, 0x7f, 0x00, 0x00, 0xc0, 0x7f, 0x00, 0x00, 0xc0, 0x7f,
    0x00, 0x00, 0xc0, 0x7f, 0x00, 0x00, 0xc0, 0x7f, 0x00, 0x00, 0xc0, 0x7f,
    0x00, 0x00, 0xc0, 0x7f, 0x00, 0x00, 0xc0, 0x7f, 0x00, 0x00, 0xc0, 0x7f,
    0x00, 0x00, 0xc0, 0x7f, 0x00, 0x00, 0xc0, 0x7f, 0x00, 0x00, 0xc0, 0x7f,
    0x00, 0x00, 0xc0, 0x7f, 0x00, 0x00, 0xc0, 0x7f, 0x00, 0x00, 0xc0, 0x7f,
    0x00, 0x00, 0xc0, 0x7f, 0x00, 0x00, 0xc0, 0x7f, 0x00, 0x00, 0xc0, 0x7f,
    0x00, 0x00, 0xc0, 0x7f, 0x00, 0x00, 0xc0, 0x7f, 0x00, 0x00, 0xc0, 0x7f,
    0x00, 0x00, 0xc0, 0x7f, 0x00, 0x00, 0xc0, 0x7f, 0x00, 0x00, 0xc0, 0x7f,
    0x00, 0x00, 0xc0, 0x7f, 0x00, 0x00, 0xc0, 0x7f, 0x00, 0x00, 0xc0, 0x7f,
    0x00, 0x00, 0xc0, 0x7f, 0x00, 0x00, 0xc0, 0x7f, 0x00, 0x00, 0xc0, 0x7f,
    0x00, 0x00, 0xc0, 0x7f, 0x00, 0x00, 0xc0, 0x7f, 0x00, 0x00, 0xc0, 0x7f,
    0x00, 0x00, 0xc0, 0x7f, 0x00, 0x00, 0xc0, 0x7f, 0x00, 0x00, 0xc0, 0x7f,
    0x00, 0x00, 0xc0, 0x7f, 0x00, 0x00, 0xc0, 0x7f, 0x00, 0x00, 0xc0, 0x7f,
    0x00, 0x00, 0xc0, 0x7f, 0x00, 0x00, 0xc0, 0x7f, 0x00, 0x00, 0xc0, 0x7f,
    0x00, 0x00, 0xc0, 0x7f, 0x00, 0x00, 0xc0, 0x7f, 0x00, 0x00, 0xc0, 0x7f,
    0x00, 0x00, 0xc0, 0x7f, 0x00, 0x00, 0xc0, 0x7f, 0x00, 0x00, 0xc0, 0x7f,
    0x00, 0x00, 0xc0, 0x7f, 0x00, 0x00, 0xc0, 0x7f, 0x00, 0x00, 0xc0, 0x7f,
    0x00, 0x00, 0xc0, 0x7f, 0x00, 0x00, 0xc0, 0x7f, 0x00, 0x00, 0xc0, 0x7f,
    0x00, 0x00, 0xc0, 0x7f, 0x00, 0x00, 0xc0, 0x7f, 0x00, 0x00, 0xc0, 0x7f,
    0x00, 0x00, 0xc0, 0x7f, 0x00, 0x00, 0xc0, 0x7f, 0x00, 0x00, 0xc0, 0x7f,
    0x00, 0x00, 0xc0, 0x7f, 0x00, 0x00, 0xc0, 0x7f, 0x00, 0x00, 0xc0, 0x7f,
    0x00, 0x00, 0xc0, 0x7f, 0x00, 0x00, 0xc0, 0x7f, 0x00, 0x00, 0xc0, 0x7f,
    0x00, 0x00, 0xc0, 0x7f, 0x00, 0x00, 0xc0, 0x7f, 0x00, 0x00, 0xc0, 0x7f,
    0x00, 0x00, 0xc0, 0x7f, 0x00, 0x00, 0xc0, 0x7f, 0x00, 0x00, 0xc0, 0x7f,
    0x00, 0x00, 0xc0, 0x7f, 0x00, 0x00, 0xc0, 0x7f, 0x00, 0x00, 0xc0, 0x7f,
    0x00, 0x00, 0xc0, 0x7f, 0x00, 0x00, 0xc0, 0x7f, 0x00, 0x00, 0xc0, 0x7f,
    0x00, 0x00, 0xc0, 0x7f, 0x00, 0x00, 0xc0, 0x7f, 0x00, 0x00, 0xc0, 0x7f,
    0x00, 0x00, 0xc0, 0x7f, 0x00, 0x00, 0xc0, 0x7f, 0x00, 0x00, 0xc0, 0x7f,
    0x00, 0x00, 0xc0, 0x7f, 0x00, 0x00, 0xc0, 0x7f, 0x00, 0x00, 0xc0, 0x7f,
    0x00, 0x00, 0xc0, 0x7f, 0x00, 0x00, 0xc0, 0x7f, 0x00, 0x00, 0xc0, 0x7f,
    0x00, 0x00, 0xc0, 0x7f, 0x00, 0x00, 0xc0, 0x7f, 0x00, 0x00, 0xc0, 0x7f,
    0x00, 0x00, 0xc0, 0x7f, 0x00, 0x00, 0xc0, 0x7f, 0x00, 0x00, 0xc0, 0x7f,
    0x00, 0x00, 0xc0, 0x7f, 0x00, 0x00, 0xc0, 0x7f, 0x00, 0x00, 0xc0, 0x7f,
    0x00, 0x00, 0xc0, 0x7f, 0x00, 0x00, 0xc0, 0x7f, 0x00, 0x00, 0xc0, 0x7f,
    0x00, 0x00, 0xc0, 0x7f, 0x00, 0x00, 0xc0, 0x7f, 0x00, 0x00, 0xc0, 0x7f,
    0x00, 0x00, 0xc0, 0x7f, 0x00, 0x00, 0xc0, 0x7f, 0x00, 0x00, 0xc0, 0x7f,
    0x00, 0x00, 0xc0, 0x7f, 0x00, 0x00, 0xc0, 0x7f, 0x00, 0x00, 0xc0, 0x7f,
    0x00, 0x00, 0xc0, 0x7f, 0x00, 0x00, 0xc0, 0x7f, 0x00, 0x00, 0xc0, 0x7f,
    0x00, 0x00, 0xc0, 0x7f, 0x00, 0x00, 0xc0, 0x7f, 0x00, 0x00, 0xc0, 0x7f,
    0x00, 0x00, 0xc0, 0x7f, 0x00, 0x00, 0xc0, 0x7f, 0x00, 0x00, 0xc0, 0x7f,
    0x00, 0x00, 0xc0, 0x7f, 0x00, 0x00, 0xc0, 0x7f, 0x00, 0x00, 0xc0, 0x7f,
    0x00, 0x00, 0xc0, 0x7f, 0x00, 0x00, 0xc0, 0x7f, 0x00, 0x00, 0xc0, 0x7f,
    0x00, 0x00, 0xc0, 0x7f, 0x00, 0x00, 0xc0, 0x7f, 0x00, 0x00, 0xc0, 0x7f,
    0x00, 0x00, 0xc0, 0x7f, 0x00, 0x00, 0xc0, 0x7f, 0x00, 0x00, 0xc0, 0x7f,
    0x00, 0x00, 0xc0, 0x7f, 0x00, 0x00, 0xc0, 0x7f, 0x00, 0x00, 0xc0, 0x7f,
    0x00, 0x00, 0xc0, 0x7f, 0x00, 0x00, 0xc0, 0x7f, 0x00, 0x00, 0xc0, 0x7f,
    0x00, 0x00, 0xc0, 0x7f, 0x00, 0x00, 0xc0, 0x7f, 0x00, 0x00, 0xc0, 0x7f,
    0x00, 0x00, 0xc0, 0x7f, 0x00, 0x00, 0xc0, 0x7f, 0x00, 0x00, 0xc0, 0x7f,
    0x00, 0x00, 0xc0, 0x7f, 0x00, 0x00, 0xc0, 0x7f, 0x00, 0x00, 0xc0, 0x7f,
    0x00, 0x00, 0xc0, 0x7f, 0x00, 0x00, 0xc0, 0x7f, 0x00, 0x00, 0xc0, 0x7f,
    0x00, 0x00, 0xc0, 0x7f, 0x00, 0x00, 0xc0, 0x7f, 0x00, 0x00, 0xc0, 0x7f,
    0x00, 0x00, 0xc0, 0x7f, 0x00, 0x00, 0xc0, 0x7f, 0x00, 0x00, 0xc0, 0x7f,
    0x00, 0x00, 0xc0, 0x7f, 0x00, 0x00, 0xc0, 0x7f, 0x00, 0x00, 0xc0, 0x7f,
    0x00, 0x00, 0xc0, 0x7f, 0x00, 0x00, 0xc0, 0x7f, 0x00, 0x00, 0xc0, 0x7f,
    0x00, 0x00, 0xc0, 0x7f, 0x00, 0x00, 0xc0, 0x7f, 0x00, 0x00, 0xc0, 0x7f,
    0x00, 0x00, 0xc0, 0x7f, 0x00, 0x00, 0xc0, 0x7f, 0x00, 0x00, 0xc0, 0x7f,
    0x00, 0x00, 0xc0, 0x7f, 0x00, 0x00, 0xc0, 0x7f, 0x00, 0x00, 0xc0, 0x7f,
    0x00, 0x00, 0xc0, 0x7f, 0x00, 0x00, 0xc0, 0x7f, 0x00, 0x00, 0xc0, 0x7f,
    0x00, 0x00, 0xc0, 0x7f, 0x00, 0x00, 0xc0, 0x7f, 0x00, 0x00, 0xc0, 0x7f,
    0x00, 0x00, 0xc0, 0x7f, 0x00, 0x00, 0xc0, 0x7f, 0x00, 0x00, 0xc0, 0x7f,
    0x00, 0x00, 0xc0, 0x7f, 0x00, 0x00, 0xc0, 0x7f, 0x00, 0x00, 0xc0, 0x7f,
    0x00, 0x00, 0xc0, 0x7f, 0x00, 0x00, 0xc0, 0x7f, 0x00, 0x00, 0xc0, 0x7f,
    0x00, 0x00, 0xc0, 0x7f, 0x00, 0x00, 0xc0, 0x7f, 0x00, 0x00, 0xc0, 0x7f,
    0x00, 0x00, 0xc0, 0x7f, 0x00, 0x00, 0xc0, 0x7f, 0x00, 0x00, 0xc0, 0x7f,
    0x00, 0x00, 0xc0, 0x7f, 0x00, 0x00, 0xc0, 0x7f, 0x00, 0x00, 0xc0, 0x7f,
    0x00, 0x00, 0xc0, 0x7f, 0x00, 0x00, 0xc0, 0x7f, 0x00, 0x00, 0xc0, 0x7f,
    0x00, 0x00, 0xc0, 0x7f, 0x00, 0x00, 0xc0, 0x7f, 0x00, 0x00, 0xc0, 0x7f,
    0x00, 0x00, 0xc0, 0x7f, 0x00, 0x00, 0xc0, 0x7f, 0x00, 0x00, 0xc0, 0x7f,
    0x00, 0x00, 0xc0, 0x7f, 0x00, 0x00, 0xc0, 0x7f, 0x00, 0x00, 0xc0, 0x7f,
    0x00, 0x00, 0xc0, 0x7f, 0x00, 0x00, 0xc0, 0x7f, 0x00, 0x00, 0xc0, 0x7f,
    0x00, 0x00, 0xc0, 0x7f, 0x00, 0x00, 0xc0, 0x7f, 0x00, 0x00, 0xc0, 0x7f,
    0x00, 0x00, 0xc0, 0x7f, 0x00, 0x00, 0xc0, 0x7f, 0x00, 0x00, 0xc0, 0x7f,
    0x00, 0x00, 0xc0, 0x7f, 0x00, 0x00, 0xc0, 0x7f, 0x00, 0x00, 0xc0, 0x7f,
    0x00, 0x00, 0xc0, 0x7f, 0x00, 0x00, 0xc0, 0x7f, 0x00, 0x00, 0xc0, 0x7f,
    0x00, 0x00, 0xc0, 0x7f, 0x00, 0x00, 0xc0, 0x7f, 0x00, 0x00, 0xc0, 0x7f,
    0x00, 0x00, 0xc0, 0x7f, 0x00, 0x00, 0xc0, 0x7f, 0x00, 0x00, 0xc0, 0x7f,
    0x00, 0x00, 0xc0, 0x7f, 0x00, 0x00, 0xc0, 0x7f, 0x00, 0x00, 0xc0, 0x7f,
    0x00, 0x00, 0xc0, 0x7f, 0x00, 0x00, 0xc0, 0x7f, 0x00, 0x00, 0xc0, 0x7f,
    0x00, 0x00, 0xc0, 0x7f, 0x00, 0x00, 0xc0, 0x7f, 0x00, 0x00, 0xc0, 0x7f,
    0x00, 0x00, 0xc0, 0x7f, 0x00, 0x00, 0xc0, 0x7f, 0x00, 0x00, 0xc0, 0x7f,
    0x00, 0x00, 0xc0, 0x7f, 0x00, 0x00, 0xc0, 0x7f, 0x00, 0x00, 0xc0, 0x7f,
    0x00, 0x00, 0xc0, 0x7f, 0x00, 0x00, 0xc0, 0x7f, 0x00, 0x00, 0xc0, 0x7f,
    0x00, 0x00, 0xc0, 0x7f, 0x00, 0x00, 0xc0, 0x7f, 0x00, 0x00, 0xc0, 0x7f,
    0x00, 0x00, 0xc0, 0x7f, 0x00, 0x00, 0xc0, 0x7f, 0x00, 0x00, 0xc0, 0x7f,
    0x00, 0x00, 0xc0, 0x7f, 0x00, 0x00, 0xc0, 0x7f, 0x00, 0x00, 0xc0, 0x7f,
    0x00, 0x00, 0xc0, 0x7f, 0x00, 0x00, 0xc0, 0x7f, 0x00, 0x00, 0xc0, 0x7f,
    0x00, 0x00, 0xc0, 0x7f, 0x00, 0x00, 0xc0, 0x7f, 0x00, 0x00, 0xc0, 0x7f,
    0x00, 0x00, 0xc0, 0x7f, 0x00, 0x00, 0xc0, 0x7f, 0x00, 0x00, 0xc0, 0x7f,
    0x00, 0x00, 0xc0, 0x7f, 0x00, 0x00, 0xc0, 0x7f, 0x00, 0x00, 0xc0, 0x7f,
    0x00, 0x00, 0xc0, 0x7f, 0x00, 0x00, 0xc0, 0x7f, 0x00, 0x00, 0xc0, 0x7f,
    0x00, 0x00, 0xc0, 0x7f, 0x00, 0x00, 0xc0, 0x7f, 0x00, 0x00, 0xc0, 0x7f,
    0x00, 0x00, 0xc0, 0x7f, 0x00, 0x00, 0xc0, 0x7f, 0x00, 0x00, 0xc0, 0x7f,
    0x00, 0x00, 0xc0, 0x7f, 0x00, 0x00, 0xc0, 0x7f, 0x00, 0x00, 0xc0, 0x7f,
    0x00, 0x00, 0xc0, 0x7f, 0x00, 0x00, 0xc0, 0x7f, 0x00, 0x00, 0xc0, 0x7f,
    0x00, 0x00, 0xc0, 0x7f, 0x00, 0x00, 0xc0, 0x7f, 0x00, 0x00, 0xc0, 0x7f,
    0x00, 0x00, 0xc0, 0x7f, 0x00, 0x00, 0xc0, 0x7f, 0x00, 0x00, 0xc0, 0x7f,
    0x00, 0x00, 0xc0, 0x7f, 0x00, 0x00, 0xc0, 0x7f, 0x00, 0x00, 0xc0, 0x7f,
    0x00, 0x00, 0xc0, 0x7f, 0x00, 0x00, 0xc0, 0x7f, 0x00, 0x00, 0xc0, 0x7f,
    0x00, 0x00, 0xc0, 0x7f, 0x00, 0x00, 0xc0, 0x7f, 0x00, 0x00, 0xc0, 0x7f,
    0x00, 0x00, 0xc0, 0x7f, 0x00, 0x00, 0xc0, 0x7f, 0x00, 0x00, 0xc0, 0x7f,
    0x00, 0x00, 0xc0, 0x7f, 0x00, 0x00, 0xc0, 0x7f, 0x00, 0x00, 0xc0, 0x7f,
    0x00, 0x00, 0xc0, 0x7f, 0x00, 0x00, 0xc0, 0x7f, 0x00, 0x00, 0xc0, 0x7f,
    0x00, 0x00, 0xc0, 0x7f, 0x00, 0x00, 0xc0, 0x7f, 0x00, 0x00, 0xc0, 0x7f,
    0x00, 0x00, 0xc0, 0x7f, 0x00, 0x00, 0xc0, 0x7f, 0x00, 0x00, 0xc0, 0x7f,
    0x00, 0x00, 0xc0, 0x7f, 0x00, 0x00, 0xc0, 0x7f, 0x00, 0x00, 0xc0, 0x7f,
    0x00, 0x00, 0xc0, 0x7f, 0x00, 0x00, 0xc0, 0x7f, 0x00, 0x00, 0xc0, 0x7f,
    0x00, 0x00, 0xc0, 0x7f, 0x00, 0x00, 0xc0, 0x7f, 0x00, 0x00, 0xc0, 0x7f,
    0x00, 0x00, 0xc0, 0x7f, 0x00, 0x00, 0xc0, 0x7f, 0x00, 0x00, 0xc0, 0x7f,
    0x00, 0x00, 0xc0, 0x7f, 0x00, 0x00, 0xc0, 0x7f, 0x00, 0x00, 0xc0, 0x7f,
    0x00, 0x00, 0xc0, 0x7f, 0x00, 0x00, 0xc0, 0x7f, 0x00, 0x00, 0xc0, 0x7f,
    0x00, 0x00, 0xc0, 0x7f, 0x00, 0x00, 0xc0, 0x7f, 0x00, 0x00, 0xc0, 0x7f,
    0x00, 0x00, 0xc0, 0x7f, 0x00, 0x00, 0xc0, 0x7f, 0x00, 0x00, 0xc0, 0x7f,
    0x00, 0x00, 0xc0, 0x7f, 0x00, 0x00, 0xc0, 0x7f, 0x00, 0x00, 0xc0, 0x7f,
    0x00, 0x00, 0xc0, 0x7f, 0x00, 0x00, 0xc0, 0x7f, 0x00, 0x00, 0xc0, 0x7f,
    0x00, 0x00, 0xc0, 0x7f, 0x00, 0x00, 0xc0, 0x7f, 0x00, 0x00, 0xc0, 0x7f,
    0x00, 0x00, 0xc0, 0x7f, 0x00, 0x00, 0xc0, 0x7f, 0x00, 0x00, 0xc0, 0x7f,
    0x00, 0x00, 0xc0, 0x7f, 0x00, 0x00, 0xc0, 0x7f, 0x00, 0x00, 0xc0, 0x7f,
    0x00, 0x00, 0xc0, 0x7f, 0x00, 0x00, 0xc0, 0x7f, 0x00, 0x00, 0xc0, 0x7f,
    0x00, 0x00, 0xc0, 0x7f, 0x00, 0x00, 0xc0, 0x7f, 0x00, 0x00, 0xc0, 0x7f,
    0x00, 0x00, 0xc0, 0x7f, 0x00, 0x00, 0xc0, 0x7f, 0x00, 0x00, 0xc0, 0x7f,
    0x00, 0x00, 0xc0, 0x7f, 0x00, 0x00, 0xc0, 0x7f, 0x00, 0x00, 0xc0, 0x7f,
    0x00, 0x00, 0xc0, 0x7f, 0x00, 0x00, 0xc0, 0x7f, 0x00, 0x00, 0xc0, 0x7f,
    0x00, 0x00, 0xc0, 0x7f, 0x00, 0x00, 0xc0, 0x7f, 0x00, 0x00, 0xc0, 0x7f,
    0x00, 0x00, 0xc0, 0x7f, 0x00, 0x00, 0xc0, 0x7f, 0x00, 0x00, 0xc0, 0x7f,
    0x00, 0x00, 0xc0, 0x7f, 0x00, 0x00, 0xc0, 0x7f, 0x00, 0x00, 0xc0, 0x7f,
    0x00, 0x00, 0xc0, 0x7f, 0x00, 0x00, 0xc0, 0x7f, 0x00, 0x00, 0xc0, 0x7f,
    0x00, 0x00, 0xc0, 0x7f, 0x00, 0x00, 0xc0, 0x7f, 0x00, 0x00, 0xc0, 0x7f,
    0x00, 0x00, 0xc0, 0x7f, 0x00, 0x00, 0xc0, 0x7f, 0x00, 0x00, 0xc0, 0x7f,
    0x00, 0x00, 0xc0, 0x7f, 0x00, 0x00, 0xc0, 0x7f, 0x00, 0x00, 0xc0, 0x7f,
    0x00, 0x00, 0xc0, 0x7f, 0x00, 0x00, 0x06, 0x00, 0x08, 0x00, 0x04, 0x00,
    0x06, 0x00, 0x00, 0x00, 0x04, 0x00, 0x00, 0x00, 0x40, 0x00, 0x00, 0x00,
    0x00, 0x00, 0xc0, 0x7f, 0x00, 0x00, 0xc0, 0x7f, 0x00, 0x00, 0xc0, 0x7f,
    0x00, 0x00, 0xc0, 0x7f, 0x00, 0x00, 0xc0, 0x7f, 0x00, 0x00, 0xc0, 0x7f,
    0x00, 0x00, 0xc0, 0x7f, 0x00, 0x00, 0xc0, 0x7f, 0x00, 0x00, 0xc0, 0x7f,
    0x00, 0x00, 0xc0, 0x7f, 0x00, 0x00, 0xc0, 0x7f, 0x00, 0x00, 0xc0, 0x7f,
    0x00, 0x00, 0xc0, 0x7f, 0x00, 0x00, 0xc0, 0x7f, 0x00, 0x00, 0xc0, 0x7f,
    0x00, 0x00, 0xc0, 0x7f, 0x68, 0xfa, 0xff, 0xff, 0x6c, 0xfa, 0xff, 0xff,
    0x0f, 0x00, 0x00, 0x00, 0x4d, 0x4c, 0x49, 0x52, 0x20, 0x43, 0x6f, 0x6e,
    0x76, 0x65, 0x72, 0x74, 0x65, 0x64, 0x2e, 0x00, 0x01, 0x00, 0x00, 0x00,
    0x14, 0x00, 0x00, 0x00, 0x00, 0x00, 0x0e, 0x00, 0x18, 0x00, 0x14, 0x00,
    0x10, 0x00, 0x0c, 0x00, 0x08, 0x00, 0x04, 0x00, 0x0e, 0x00, 0x00, 0x00,
    0x14, 0x00, 0x00, 0x00, 0x1c, 0x00, 0x00, 0x00, 0x08, 0x01, 0x00, 0x00,
    0x0c, 0x01, 0x00, 0x00, 0x10, 0x01, 0x00, 0x00, 0x04, 0x00, 0x00, 0x00,
    0x6d, 0x61, 0x69, 0x6e, 0x00, 0x00, 0x00, 0x00, 0x04, 0x00, 0x00, 0x00,
    0xb0, 0x00, 0x00, 0x00, 0x68, 0x00, 0x00, 0x00, 0x34, 0x00, 0x00, 0x00,
    0x10, 0x00, 0x00, 0x00, 0x00, 0x00, 0x0a, 0x00, 0x10, 0x00, 0x0c, 0x00,
    0x08, 0x00, 0x04, 0x00, 0x0a, 0x00, 0x00, 0x00, 0x0c, 0x00, 0x00, 0x00,
    0x10, 0x00, 0x00, 0x00, 0x01, 0x00, 0x00, 0x00, 0x01, 0x00, 0x00, 0x00,
    0x0a, 0x00, 0x00, 0x00, 0x01, 0x00, 0x00, 0x00, 0x09, 0x00, 0x00, 0x00,
    0x9a, 0xff, 0xff, 0xff, 0x10, 0x00, 0x00, 0x00, 0x00, 0x00, 0x00, 0x08,
    0x0c, 0x00, 0x00, 0x00, 0x10, 0x00, 0x00, 0x00, 0x14, 0xfb, 0xff, 0xff,
    0x01, 0x00, 0x00, 0x00, 0x09, 0x00, 0x00, 0x00, 0x03, 0x00, 0x00, 0x00,
    0x08, 0x00, 0x00, 0x00, 0x01, 0x00, 0x00, 0x00, 0x05, 0x00, 0x00, 0x00,
    0xca, 0xff, 0xff, 0xff, 0x10, 0x00, 0x00, 0x00, 0x00, 0x00, 0x00, 0x08,
    0x10, 0x00, 0x00, 0x00, 0x14, 0x00, 0x00, 0x00, 0xba, 0xff, 0xff, 0xff,
    0x00, 0x00, 0x00, 0x01, 0x01, 0x00, 0x00, 0x00, 0x08, 0x00, 0x00, 0x00,
    0x03, 0x00, 0x00, 0x00, 0x07, 0x00, 0x00, 0x00, 0x02, 0x00, 0x00, 0x00,
    0x03, 0x00, 0x00, 0x00, 0x00, 0x00, 0x0e, 0x00, 0x16, 0x00, 0x00, 0x00,
    0x10, 0x00, 0x0c, 0x00, 0x0b, 0x00, 0x04, 0x00, 0x0e, 0x00, 0x00, 0x00,
    0x18, 0x00, 0x00, 0x00, 0x00, 0x00, 0x00, 0x08, 0x18, 0x00, 0x00, 0x00,
    0x1c, 0x00, 0x00, 0x00, 0x00, 0x00, 0x06, 0x00, 0x08, 0x00, 0x07, 0x00,
    0x06, 0x00, 0x00, 0x00, 0x00, 0x00, 0x00, 0x01, 0x01, 0x00, 0x00, 0x00,
    0x07, 0x00, 0x00, 0x00, 0x03, 0x00, 0x00, 0x00, 0x00, 0x00, 0x00, 0x00,
    0x06, 0x00, 0x00, 0x00, 0x04, 0x00, 0x00, 0x00, 0x01, 0x00, 0x00, 0x00,
    0x0a, 0x00, 0x00, 0x00, 0x01, 0x00, 0x00, 0x00, 0x00, 0x00, 0x00, 0x00,
    0x0b, 0x00, 0x00, 0x00, 0x14, 0x04, 0x00, 0x00, 0xbc, 0x03, 0x00, 0x00,
    0x64, 0x03, 0x00, 0x00, 0x08, 0x03, 0x00, 0x00, 0xb0, 0x02, 0x00, 0x00,
    0x58, 0x02, 0x00, 0x00, 0x0c, 0x02, 0x00, 0x00, 0x78, 0x01, 0x00, 0x00,
    0xdc, 0x00, 0x00, 0x00, 0x60, 0x00, 0x00, 0x00, 0x04, 0x00, 0x00, 0x00,
    0x2e, 0xfc, 0xff, 0xff, 0x00, 0x00, 0x00, 0x01, 0x14, 0x00, 0x00, 0x00,
    0x1c, 0x00, 0x00, 0x00, 0x1c, 0x00, 0x00, 0x00, 0x0b, 0x00, 0x00, 0x00,
    0x34, 0x00, 0x00, 0x00, 0x02, 0x00, 0x00, 0x00, 0xff, 0xff, 0xff, 0xff,
    0x01, 0x00, 0x00, 0x00, 0x18, 0xfc, 0xff, 0xff, 0x1b, 0x00, 0x00, 0x00,
    0x53, 0x74, 0x61, 0x74, 0x65, 0x66, 0x75, 0x6c, 0x50, 0x61, 0x72, 0x74,
    0x69, 0x74, 0x69, 0x6f, 0x6e, 0x65, 0x64, 0x43, 0x61, 0x6c, 0x6c, 0x5f,
    0x31, 0x3a, 0x30, 0x00, 0x02, 0x00, 0x00, 0x00, 0x01, 0x00, 0x00, 0x00,
    0x01, 0x00, 0x00, 0x00, 0x86, 0xfc, 0xff, 0xff, 0x00, 0x00, 0x00, 0x01,
    0x14, 0x00, 0x00, 0x00, 0x1c, 0x00, 0x00, 0x00, 0x1c, 0x00, 0x00, 0x00,
    0x0a, 0x00, 0x00, 0x00, 0x54, 0x00, 0x00, 0x00, 0x02, 0x00, 0x00, 0x00,
    0xff, 0xff, 0xff, 0xff, 0x01, 0x00, 0x00, 0x00, 0x70, 0xfc, 0xff, 0xff,
    0x38, 0x00, 0x00, 0x00, 0x66, 0x75, 0x6e, 0x63, 0x74, 0x69, 0x6f, 0x6e,
    0x61, 0x6c, 0x5f, 0x31, 0x2f, 0x64, 0x65, 0x6e, 0x73, 0x65, 0x5f, 0x32,
    0x5f, 0x31, 0x2f, 0x4d, 0x61, 0x74, 0x4d, 0x75, 0x6c, 0x3b, 0x66, 0x75,
    0x6e, 0x63, 0x74, 0x69, 0x6f, 0x6e, 0x61, 0x6c, 0x5f, 0x31, 0x2f, 0x64,
    0x65, 0x6e, 0x73, 0x65, 0x5f, 0x32, 0x5f, 0x31, 0x2f, 0x41, 0x64, 0x64,
    0x00, 0x00, 0x00, 0x00, 0x02, 0x00, 0x00, 0x00, 0x01, 0x00, 0x00, 0x00,
    0x01, 0x00, 0x00, 0x00, 0xfe, 0xfc, 0xff, 0xff, 0x00, 0x00, 0x00, 0x01,
    0x14, 0x00, 0x00, 0x00, 0x1c, 0x00, 0x00, 0x00, 0x1c, 0x00, 0x00, 0x00,
    0x09, 0x00, 0x00, 0x00, 0x74, 0x00, 0x00, 0x00, 0x02, 0x00, 0x00, 0x00,
    0xff, 0xff, 0xff, 0xff, 0x10, 0x00, 0x00, 0x00, 0xe8, 0xfc, 0xff, 0xff,
    0x58, 0x00, 0x00, 0x00, 0x66, 0x75, 0x6e, 0x63, 0x74, 0x69, 0x6f, 0x6e,
    0x61, 0x6c, 0x5f, 0x31, 0x2f, 0x64, 0x65, 0x6e, 0x73, 0x65, 0x5f, 0x31,
    0x5f, 0x32, 0x2f, 0x4d, 0x61, 0x74, 0x4d, 0x75, 0x6c, 0x3b, 0x66, 0x75,
    0x6e, 0x63, 0x74, 0x69, 0x6f, 0x6e, 0x61, 0x6c, 0x5f, 0x31, 0x2f, 0x64,
    0x65, 0x6e, 0x73, 0x65, 0x5f, 0x31, 0x5f, 0x32, 0x2f, 0x52, 0x65, 0x6c,
    0x75, 0x3b, 0x66, 0x75, 0x6e, 0x63, 0x74, 0x69, 0x6f, 0x6e, 0x61, 0x6c,
    0x5f, 0x31, 0x2f, 0x64, 0x65, 0x6e, 0x73, 0x65, 0x5f, 0x31, 0x5f, 0x32,
    0x2f, 0x42, 0x69, 0x61, 0x73, 0x41, 0x64, 0x64, 0x00, 0x00, 0x00, 0x00,
    0x02, 0x00, 0x00, 0x00, 0x01, 0x00, 0x00, 0x00, 0x10, 0x00, 0x00, 0x00,
    0x96, 0xfd, 0xff, 0xff, 0x00, 0x00, 0x00, 0x01, 0x14, 0x00, 0x00, 0x00,
    0x1c, 0x00, 0x00, 0x00, 0x1c, 0x00, 0x00, 0x00, 0x08, 0x00, 0x00, 0x00,
    0x6c, 0x00, 0x00, 0x00, 0x02, 0x00, 0x00, 0x00, 0xff, 0xff, 0xff, 0xff,
    0x20, 0x00, 0x00, 0x00, 0x80, 0xfd, 0xff, 0xff, 0x52, 0x00, 0x00, 0x00,
    0x66, 0x75, 0x6e, 0x63, 0x74, 0x69, 0x6f, 0x6e, 0x61, 0x6c, 0x5f, 0x31,
    0x2f, 0x64, 0x65, 0x6e, 0x73, 0x65, 0x5f, 0x31, 0x2f, 0x4d, 0x61, 0x74,
    0x4d, 0x75, 0x6c, 0x3b, 0x66, 0x75, 0x6e, 0x63, 0x74, 0x69, 0x6f, 0x6e,
    0x61, 0x6c, 0x5f, 0x31, 0x2f, 0x64, 0x65, 0x6e, 0x73, 0x65, 0x5f, 0x31,
    0x2f, 0x52, 0x65, 0x6c, 0x75, 0x3b, 0x66, 0x75, 0x6e, 0x63, 0x74, 0x69,
    0x6f, 0x6e, 0x61, 0x6c, 0x5f, 0x31, 0x2f, 0x64, 0x65, 0x6e, 0x73, 0x65,
    0x5f, 0x31, 0x2f, 0x42, 0x69, 0x61, 0x73, 0x41, 0x64, 0x64, 0x00, 0x00,
    0x02, 0x00, 0x00, 0x00, 0x01, 0x00, 0x00, 0x00, 0x20, 0x00, 0x00, 0x00,
    0x7a, 0xfe, 0xff, 0xff, 0x00, 0x00, 0x00, 0x01, 0x10, 0x00, 0x00, 0x00,
    0x10, 0x00, 0x00, 0x00, 0x07, 0x00, 0x00, 0x00, 0x28, 0x00, 0x00, 0x00,
    0x00, 0xfe, 0xff, 0xff, 0x1b, 0x00, 0x00, 0x00, 0x66, 0x75, 0x6e, 0x63,
    0x74, 0x69, 0x6f, 0x6e, 0x61, 0x6c, 0x5f, 0x31, 0x2f, 0x64, 0x65, 0x6e,
    0x73, 0x65, 0x5f, 0x31, 0x2f, 0x4d, 0x61, 0x74, 0x4d, 0x75, 0x6c, 0x00,
    0x02, 0x00, 0x00, 0x00, 0x20, 0x00, 0x00, 0x00, 0x40, 0x00, 0x00, 0x00,
    0xc2, 0xfe, 0xff, 0xff, 0x00, 0x00, 0x00, 0x01, 0x10, 0x00, 0x00, 0x00,
    0x10, 0x00, 0x00, 0x00, 0x06, 0x00, 0x00, 0x00, 0x38, 0x00, 0x00, 0x00,
    0x48, 0xfe, 0xff, 0xff, 0x29, 0x00, 0x00, 0x00, 0x66, 0x75, 0x6e, 0x63,
    0x74, 0x69, 0x6f, 0x6e, 0x61, 0x6c, 0x5f, 0x31, 0x2f, 0x64, 0x65, 0x6e,
    0x73, 0x65, 0x5f, 0x32, 0x5f, 0x31, 0x2f, 0x41, 0x64, 0x64, 0x2f, 0x52,
    0x65, 0x61, 0x64, 0x56, 0x61, 0x72, 0x69, 0x61, 0x62, 0x6c, 0x65, 0x4f,
    0x70, 0x00, 0x00, 0x00, 0x01, 0x00, 0x00, 0x00, 0x01, 0x00, 0x00, 0x00,
    0x16, 0xff, 0xff, 0xff, 0x00, 0x00, 0x00, 0x01, 0x10, 0x00, 0x00, 0x00,
    0x10, 0x00, 0x00, 0x00, 0x05, 0x00, 0x00, 0x00, 0x38, 0x00, 0x00, 0x00,
    0x9c, 0xfe, 0xff, 0xff, 0x2b, 0x00, 0x00, 0x00, 0x66, 0x75, 0x6e, 0x63,
    0x74, 0x69, 0x6f, 0x6e, 0x61, 0x6c, 0x5f, 0x31, 0x2f, 0x64, 0x65, 0x6e,
    0x73, 0x65, 0x5f, 0x31, 0x2f, 0x42, 0x69, 0x61, 0x73, 0x41, 0x64, 0x64,
    0x2f, 0x52, 0x65, 0x61, 0x64, 0x56, 0x61, 0x72, 0x69, 0x61, 0x62, 0x6c,
    0x65, 0x4f, 0x70, 0x00, 0x01, 0x00, 0x00, 0x00, 0x20, 0x00, 0x00, 0x00,
    0x6a, 0xff, 0xff, 0xff, 0x00, 0x00, 0x00, 0x01, 0x10, 0x00, 0x00, 0x00,
    0x10, 0x00, 0x00, 0x00, 0x02, 0x00, 0x00, 0x00, 0x3c, 0x00, 0x00, 0x00,
    0xf0, 0xfe, 0xff, 0xff, 0x2d, 0x00, 0x00, 0x00, 0x66, 0x75, 0x6e, 0x63,
    0x74, 0x69, 0x6f, 0x6e, 0x61, 0x6c, 0x5f, 0x31, 0x2f, 0x64, 0x65, 0x6e,
    0x73, 0x65, 0x5f, 0x31, 0x5f, 0x32, 0x2f, 0x42, 0x69, 0x61, 0x73, 0x41,
    0x64, 0x64, 0x2f, 0x52, 0x65, 0x61, 0x64, 0x56, 0x61, 0x72, 0x69, 0x61,
    0x62, 0x6c, 0x65, 0x4f, 0x70, 0x00, 0x00, 0x00, 0x01, 0x00, 0x00, 0x00,
    0x10, 0x00, 0x00, 0x00, 0xc2, 0xff, 0xff, 0xff, 0x00, 0x00, 0x00, 0x01,
    0x10, 0x00, 0x00, 0x00, 0x10, 0x00, 0x00, 0x00, 0x03, 0x00, 0x00, 0x00,
    0x1c, 0x00, 0x00, 0x00, 0x48, 0xff, 0xff, 0xff, 0x0f, 0x00, 0x00, 0x00,
    0x61, 0x72, 0x69, 0x74, 0x68, 0x2e, 0x63, 0x6f, 0x6e, 0x73, 0x74, 0x61,
    0x6e, 0x74, 0x31, 0x00, 0x02, 0x00, 0x00, 0x00, 0x10, 0x00, 0x00, 0x00,
    0x20, 0x00, 0x00, 0x00, 0x00, 0x00, 0x16, 0x00, 0x18, 0x00, 0x14, 0x00,
    0x00, 0x00, 0x10, 0x00, 0x0c, 0x00, 0x08, 0x00, 0x00, 0x00, 0x00, 0x00,
    0x00, 0x00, 0x07, 0x00, 0x16, 0x00, 0x00, 0x00, 0x00, 0x00, 0x00, 0x01,
    0x10, 0x00, 0x00, 0x00, 0x10, 0x00, 0x00, 0x00, 0x02, 0x00, 0x00, 0x00,
    0x1c, 0x00, 0x00, 0x00, 0x9c, 0xff, 0xff, 0xff, 0x0e, 0x00, 0x00, 0x00,
    0x61, 0x72, 0x69, 0x74, 0x68, 0x2e, 0x63, 0x6f, 0x6e, 0x73, 0x74, 0x61,
    0x6e, 0x74, 0x00, 0x00, 0x02, 0x00, 0x00, 0x00, 0x01, 0x00, 0x00, 0x00,
    0x10, 0x00, 0x00, 0x00, 0x00, 0x00, 0x16, 0x00, 0x1c, 0x00, 0x18, 0x00,
    0x00, 0x00, 0x14, 0x00, 0x10, 0x00, 0x0c, 0x00, 0x00, 0x00, 0x00, 0x00,
    0x08, 0x00, 0x07, 0x00, 0x16, 0x00, 0x00, 0x00, 0x00, 0x00, 0x00, 0x01,
    0x14, 0x00, 0x00, 0x00, 0x20, 0x00, 0x00, 0x00, 0x20, 0x00, 0x00, 0x00,
    0x01, 0x00, 0x00, 0x00, 0x3c, 0x00, 0x00, 0x00, 0x02, 0x00, 0x00, 0x00,
    0xff, 0xff, 0xff, 0xff, 0x40, 0x00, 0x00, 0x00, 0x04, 0x00, 0x04, 0x00,
    0x04, 0x00, 0x00, 0x00, 0x1d, 0x00, 0x00, 0x00, 0x73, 0x65, 0x72, 0x76,
    0x69, 0x6e, 0x67, 0x5f, 0x64, 0x65, 0x66, 0x61, 0x75, 0x6c, 0x74, 0x5f,
    0x69, 0x6e, 0x70, 0x75, 0x74, 0x5f, 0x6c, 0x61, 0x79, 0x65, 0x72, 0x3a,
    0x30, 0x00, 0x00, 0x00, 0x02, 0x00, 0x00, 0x00, 0x01, 0x00, 0x00, 0x00,
    0x40, 0x00, 0x00, 0x00, 0x02, 0x00, 0x00, 0x00, 0x20, 0x00, 0x00, 0x00,
    0x04, 0x00, 0x00, 0x00, 0xf4, 0xff, 0xff, 0xff, 0x0e, 0x00, 0x00, 0x00,
    0x00, 0x00, 0x00, 0x0e, 0x0c, 0x00, 0x0c, 0x00, 0x0b, 0x00, 0x00, 0x00,
    0x00, 0x00, 0x04, 0x00, 0x0c, 0x00, 0x00, 0x00, 0x09, 0x00, 0x00, 0x00,
    0x00, 0x00, 0x00, 0x09,
};

const size_t model_len = 12520;

#endif // MODEL_H
